[PAD]	0
[UNK]	0
[<start-of-text>]	0
[<end-of-text>]	0
[<n>]	0
<0x00>	0
<0x01>	0
<0x02>	0
<0x03>	0
<0x04>	0
<0x05>	0
<0x06>	0
<0x07>	0
<0x08>	0
<0x09>	0
<0x0A>	0
<0x0B>	0
<0x0C>	0
<0x0D>	0
<0x0E>	0
<0x0F>	0
<0x10>	0
<0x11>	0
<0x12>	0
<0x13>	0
<0x14>	0
<0x15>	0
<0x16>	0
<0x17>	0
<0x18>	0
<0x19>	0
<0x1A>	0
<0x1B>	0
<0x1C>	0
<0x1D>	0
<0x1E>	0
<0x1F>	0
<0x20>	0
<0x21>	0
<0x22>	0
<0x23>	0
<0x24>	0
<0x25>	0
<0x26>	0
<0x27>	0
<0x28>	0
<0x29>	0
<0x2A>	0
<0x2B>	0
<0x2C>	0
<0x2D>	0
<0x2E>	0
<0x2F>	0
<0x30>	0
<0x31>	0
<0x32>	0
<0x33>	0
<0x34>	0
<0x35>	0
<0x36>	0
<0x37>	0
<0x38>	0
<0x39>	0
<0x3A>	0
<0x3B>	0
<0x3C>	0
<0x3D>	0
<0x3E>	0
<0x3F>	0
<0x40>	0
<0x41>	0
<0x42>	0
<0x43>	0
<0x44>	0
<0x45>	0
<0x46>	0
<0x47>	0
<0x48>	0
<0x49>	0
<0x4A>	0
<0x4B>	0
<0x4C>	0
<0x4D>	0
<0x4E>	0
<0x4F>	0
<0x50>	0
<0x51>	0
<0x52>	0
<0x53>	0
<0x54>	0
<0x55>	0
<0x56>	0
<0x57>	0
<0x58>	0
<0x59>	0
<0x5A>	0
<0x5B>	0
<0x5C>	0
<0x5D>	0
<0x5E>	0
<0x5F>	0
<0x60>	0
<0x61>	0
<0x62>	0
<0x63>	0
<0x64>	0
<0x65>	0
<0x66>	0
<0x67>	0
<0x68>	0
<0x69>	0
<0x6A>	0
<0x6B>	0
<0x6C>	0
<0x6D>	0
<0x6E>	0
<0x6F>	0
<0x70>	0
<0x71>	0
<0x72>	0
<0x73>	0
<0x74>	0
<0x75>	0
<0x76>	0
<0x77>	0
<0x78>	0
<0x79>	0
<0x7A>	0
<0x7B>	0
<0x7C>	0
<0x7D>	0
<0x7E>	0
<0x7F>	0
<0x80>	0
<0x81>	0
<0x82>	0
<0x83>	0
<0x84>	0
<0x85>	0
<0x86>	0
<0x87>	0
<0x88>	0
<0x89>	0
<0x8A>	0
<0x8B>	0
<0x8C>	0
<0x8D>	0
<0x8E>	0
<0x8F>	0
<0x90>	0
<0x91>	0
<0x92>	0
<0x93>	0
<0x94>	0
<0x95>	0
<0x96>	0
<0x97>	0
<0x98>	0
<0x99>	0
<0x9A>	0
<0x9B>	0
<0x9C>	0
<0x9D>	0
<0x9E>	0
<0x9F>	0
<0xA0>	0
<0xA1>	0
<0xA2>	0
<0xA3>	0
<0xA4>	0
<0xA5>	0
<0xA6>	0
<0xA7>	0
<0xA8>	0
<0xA9>	0
<0xAA>	0
<0xAB>	0
<0xAC>	0
<0xAD>	0
<0xAE>	0
<0xAF>	0
<0xB0>	0
<0xB1>	0
<0xB2>	0
<0xB3>	0
<0xB4>	0
<0xB5>	0
<0xB6>	0
<0xB7>	0
<0xB8>	0
<0xB9>	0
<0xBA>	0
<0xBB>	0
<0xBC>	0
<0xBD>	0
<0xBE>	0
<0xBF>	0
<0xC0>	0
<0xC1>	0
<0xC2>	0
<0xC3>	0
<0xC4>	0
<0xC5>	0
<0xC6>	0
<0xC7>	0
<0xC8>	0
<0xC9>	0
<0xCA>	0
<0xCB>	0
<0xCC>	0
<0xCD>	0
<0xCE>	0
<0xCF>	0
<0xD0>	0
<0xD1>	0
<0xD2>	0
<0xD3>	0
<0xD4>	0
<0xD5>	0
<0xD6>	0
<0xD7>	0
<0xD8>	0
<0xD9>	0
<0xDA>	0
<0xDB>	0
<0xDC>	0
<0xDD>	0
<0xDE>	0
<0xDF>	0
<0xE0>	0
<0xE1>	0
<0xE2>	0
<0xE3>	0
<0xE4>	0
<0xE5>	0
<0xE6>	0
<0xE7>	0
<0xE8>	0
<0xE9>	0
<0xEA>	0
<0xEB>	0
<0xEC>	0
<0xED>	0
<0xEE>	0
<0xEF>	0
<0xF0>	0
<0xF1>	0
<0xF2>	0
<0xF3>	0
<0xF4>	0
<0xF5>	0
<0xF6>	0
<0xF7>	0
<0xF8>	0
<0xF9>	0
<0xFA>	0
<0xFB>	0
<0xFC>	0
<0xFD>	0
<0xFE>	0
<0xFF>	0
-	-2.28141
e	-3.07208
▁hai	-3.56145
▁ki	-3.9018
▁se	-4.09224
▁mein	-4.11041
▁ke	-4.30351
▁	-4.37695
▁ko	-4.49657
▁na	-4.50345
▁ka	-4.56276
'	-4.603
▁to	-4.67407
▁hain	-4.67551
▁'	-4.70361
▁bhi	-4.74548
▁nahin	-4.87515
on	-4.96199
i	-4.97539
▁kya	-5.00658
▁ho	-5.00696
▁wo	-5.01306
▁ye	-5.02947
▁jo	-5.06538
▁hum	-5.08027
▁dil	-5.09767
▁us	-5.10205
▁ne	-5.22036
.	-5.26802
▁kar	-5.27557
▁tha	-5.35495
▁main	-5.35612
▁ek	-5.46131
o	-5.49884
▁hi	-5.51325
▁par	-5.56985
▁hun	-5.57811
▁aur	-5.59386
▁koi	-5.65073
▁kuchh	-5.68099
▁ab	-5.70404
▁is	-5.76723
▁kis	-5.84355
▁mere	-5.87542
▁ai	-5.87768
a	-5.91632
▁pe	-5.95831
▁gaya	-5.98864
▁hua	-6.04214
▁tere	-6.08402
▁mujh	-6.11685
▁tu	-6.12594
▁meri	-6.12825
▁har	-6.13289
▁phir	-6.13412
▁be	-6.15347
▁mujhe	-6.18593
▁teri	-6.26317
▁jab	-6.28859
ta	-6.29043
▁jis	-6.30545
▁thi	-6.32491
▁o	-6.33648
▁rah	-6.35981
n	-6.36717
▁raha	-6.37076
▁aa	-6.3764
▁the	-6.38769
dil	-6.43021
▁tum	-6.43633
▁kabhi	-6.45756
▁apne	-6.45986
▁sar	-6.48024
▁tak	-6.50149
▁un	-6.51996
▁mera	-6.53326
▁gae	-6.54192
▁kyun	-6.54655
▁gai	-6.55061
ne	-6.55371
▁yaad	-6.61544
▁hue	-6.62479
▁jaan	-6.62498
▁dekh	-6.63188
▁baat	-6.63253
▁kiya	-6.64284
▁kahan	-6.67218
▁apni	-6.68516
▁rahe	-6.69424
▁liye	-6.70346
▁aankh	-6.72013
▁M	-6.72327
▁sab	-6.72717
▁tujh	-6.72894
▁aaj	-6.75047
▁din	-6.75068
▁aaya	-6.7631
▁ja	-6.78082
▁bahut	-6.78124
▁ishq	-6.78138
▁tarah	-6.78251
▁ghar	-6.78309
▁raat	-6.78686
▁aap	-6.7976
▁shab	-6.81389
▁le	-6.81796
▁kahin	-6.83461
▁dekha	-6.83902
▁magar	-6.84095
▁tera	-6.84101
▁nazar	-6.84102
▁de	-6.84881
na	-6.87464
▁diya	-6.87515
▁agar	-6.88358
en	-6.89332
▁gham	-6.89791
▁aae	-6.90053
▁hui	-6.906
▁jae	-6.91614
▁dam	-6.91975
▁hota	-6.9371
▁sath	-6.95734
si	-6.96801
▁apna	-6.97107
▁gul	-6.98988
▁A	-6.99656
▁rang	-6.99843
ba	-7.01067
abadi	-7.03564
▁gar	-7.04169
▁kab	-7.05232
▁ya	-7.05494
▁wahi	-7.05946
▁yun	-7.06233
▁ba	-7.06366
▁sa	-7.09061
▁karte	-7.10545
▁do	-7.11392
▁jahan	-7.11465
▁KHuda	-7.11851
▁bas	-7.11945
▁hath	-7.12621
▁so	-7.13288
▁yar	-7.13468
▁hamein	-7.14019
▁ji	-7.1412
yar	-7.19023
▁kaun	-7.1942
▁nigah	-7.19972
▁husn	-7.20444
▁aai	-7.20585
▁laga	-7.20651
▁abhi	-7.2255
▁dar	-7.2269
▁KHud	-7.23208
▁si	-7.23511
▁Gh	-7.24068
▁bar	-7.24331
ishq	-7.25027
te	-7.26263
▁KHak	-7.26412
ni	-7.28118
▁jate	-7.28472
▁rahi	-7.28479
▁nam	-7.30434
gul	-7.30504
▁shahr	-7.30752
l	-7.30792
▁S	-7.31702
▁duniya	-7.32803
▁KHwab	-7.3291
an	-7.32987
▁jaane	-7.33131
▁munh	-7.33735
▁hon	-7.34262
▁chashm	-7.3539
▁zindagi	-7.35663
▁yan	-7.3595
▁kaam	-7.36169
▁lab	-7.37499
dar	-7.38125
▁kun	-7.3817
▁sham	-7.38384
▁yahi	-7.38644
▁waqt	-7.39251
▁mai	-7.3926
▁kam	-7.39665
▁aah	-7.39723
▁lekin	-7.41054
▁hawa	-7.41831
▁kaha	-7.42754
▁jata	-7.43196
▁taraf	-7.4393
▁zulf	-7.44759
▁hoga	-7.44839
▁aata	-7.44938
▁kahte	-7.45204
▁log	-7.45287
▁sun	-7.45485
▁dard	-7.46151
▁mar	-7.46673
▁nikal	-7.46698
▁ham	-7.48132
▁ban	-7.49306
▁dur	-7.49669
▁haal	-7.49809
be	-7.50888
▁tujhe	-7.51928
jaan	-7.52024
▁aalam	-7.52817
▁bhar	-7.52911
gham	-7.53128
▁karta	-7.53197
▁surat	-7.54651
hmad	-7.54685
▁chale	-7.54688
ti	-7.55955
▁kah	-7.56842
▁chhoD	-7.57082
▁liya	-7.57679
▁roz	-7.58595
eer	-7.59086
▁KHun	-7.59113
▁mohabbat	-7.59596
▁hote	-7.5979
▁pahle	-7.60704
▁I	-7.6113
▁phul	-7.61456
▁pas	-7.61517
▁wale	-7.63241
ru	-7.63682
▁KHush	-7.64152
▁zaban	-7.64349
▁karen	-7.65075
▁KHayal	-7.65229
▁but	-7.65685
▁subh	-7.6776
▁jaana	-7.68316
ha	-7.69313
▁use	-7.69603
▁sada	-7.70066
▁hamare	-7.70884
▁aashiq	-7.70917
▁aati	-7.71011
▁zamin	-7.71057
▁kal	-7.71986
h	-7.72176
▁aisa	-7.72197
▁aate	-7.7241
▁guzar	-7.73252
▁baad	-7.73644
▁jati	-7.74553
▁KHabar	-7.75427
▁N	-7.75545
ir	-7.76179
▁hamara	-7.76779
▁yahan	-7.77119
▁kare	-7.77406
▁umr	-7.77708
tar	-7.77822
▁ghair	-7.77987
mohabbat	-7.78241
▁zara	-7.79293
▁aaina	-7.79491
▁mila	-7.79791
▁rakh	-7.80201
▁in	-7.806
▁Akbar	-7.81261
▁R	-7.81673
▁uTha	-7.82604
b	-7.82861
▁jaise	-7.83416
at	-7.84193
▁zaKHm	-7.84397
mushafi	-7.84545
az	-7.84755
▁ajab	-7.84984
▁dekhte	-7.85105
▁aasman	-7.8524
▁jin	-7.85452
sar	-7.85453
▁Meer	-7.85759
▁bana	-7.85793
ulam	-7.85852
▁hoti	-7.85922
ushafi	-7.86685
▁pa	-7.86721
Hamda	-7.86752
▁aise	-7.87144
▁nikla	-7.87469
irza	-7.88217
▁aaKHir	-7.88409
▁chaman	-7.88989
▁mil	-7.8929
▁mat	-7.89494
▁chahiye	-7.89587
▁itna	-7.89773
▁bahaar	-7.90358
▁ta	-7.90392
▁aankhen	-7.91286
▁baiThe	-7.91766
▁karo	-7.92138
pa	-7.92797
▁Kha	-7.93148
▁sin	-7.93665
▁jal	-7.93691
wafa	-7.93787
▁ada	-7.94252
un	-7.94676
▁ahl	-7.94707
▁dariya	-7.94727
ar	-7.95353
▁suna	-7.95756
▁juda	-7.96045
▁dagh	-7.96111
▁hamari	-7.96129
▁chand	-7.9617
ya	-7.96267
▁bazm	-7.96419
▁daman	-7.96613
▁aag	-7.96681
bar	-7.97037
▁tab	-7.97306
▁Qa	-7.97638
▁jam	-7.97892
iyan	-7.98107
▁chah	-7.99021
▁shauq	-7.99356
▁aisi	-7.9936
▁tamam	-7.99593
in	-7.99688
alib	-7.99885
▁Dar	-7.99963
▁aage	-7.99994
rah	-8.00039
▁panw	-8.00312
▁di	-8.01407
▁la	-8.01506
shab	-8.01621
naz	-8.0177
mai	-8.02037
▁saqi	-8.03149
▁karun	-8.03451
▁kahta	-8.03647
▁nikle	-8.03701
qba	-8.04579
▁sahi	-8.04585
▁KHub	-8.0488
atish	-8.05093
▁pani	-8.05445
▁sharab	-8.05777
▁shayad	-8.06048
▁idhar	-8.06503
▁gali	-8.06511
▁warna	-8.0652
shauq	-8.06612
m	-8.06948
▁mah	-8.07162
▁wan	-8.07759
▁baqi	-8.07872
sh	-8.08574
▁chal	-8.09265
▁shoKH	-8.09307
▁qadam	-8.10604
▁sakta	-8.1068
nazir	-8.1127
▁naz	-8.12447
▁ashk	-8.1265
▁dekho	-8.12973
▁Jau	-8.13119
▁achchha	-8.13598
▁aan	-8.13831
▁malum	-8.14086
▁kaise	-8.14588
husn	-8.15289
▁yak	-8.15463
▁tar	-8.15745
▁hans	-8.15899
▁hona	-8.16316
KHana	-8.16459
▁F	-8.1655
▁jaen	-8.16556
▁aab	-8.17366
▁dete	-8.1783
vi	-8.17973
▁chala	-8.18133
gi	-8.18177
▁baaten	-8.18585
▁bagh	-8.18621
▁manzil	-8.18774
jigar	-8.1889
▁unhen	-8.19101
▁tumhein	-8.19111
▁ru	-8.20044
▁sake	-8.20075
▁qadar	-8.20164
▁dushman	-8.20204
t	-8.20587
▁bhul	-8.21512
▁naqsh	-8.21606
▁udhar	-8.2174
▁jise	-8.21765
ki	-8.21772
▁siwa	-8.21831
▁bad	-8.21843
▁qayamat	-8.21863
d	-8.22371
▁paDa	-8.22437
dhar	-8.22583
▁lage	-8.22615
▁mu	-8.22631
▁safar	-8.22748
▁aansu	-8.22802
▁samajh	-8.23013
▁maza	-8.23069
zar	-8.2311
▁tir	-8.23295
afar	-8.23382
▁kahun	-8.23558
▁mauj	-8.239
▁allah	-8.24172
▁ghazal	-8.24187
ma	-8.24275
▁bhala	-8.24423
▁tan	-8.24887
▁aarzu	-8.24957
gar	-8.25365
▁charagh	-8.25644
▁mausam	-8.26109
▁kyunkar	-8.26217
rang	-8.26475
liya	-8.27052
zafar	-8.27188
▁zamane	-8.27208
▁aawaz	-8.27325
mir	-8.27904
▁kha	-8.27926
▁lo	-8.27989
▁hijr	-8.28071
▁band	-8.28274
▁pari	-8.28501
▁lutf	-8.28503
▁jalwa	-8.28826
▁Faiz	-8.28865
▁aane	-8.28893
▁lagi	-8.29278
▁puchh	-8.29392
▁samne	-8.29449
▁milta	-8.29708
▁sitam	-8.30002
▁dast	-8.30092
▁bin	-8.30176
dam	-8.3061
▁harf	-8.30683
▁kiye	-8.30883
▁wasl	-8.31101
kar	-8.31202
▁shaiKH	-8.31229
ab	-8.31439
▁tegh	-8.31517
▁dost	-8.31649
yan	-8.31692
che	-8.31741
▁jaega	-8.31894
▁kahe	-8.32165
▁ruKH	-8.3218
▁jala	-8.32268
▁jigar	-8.32691
▁samjha	-8.33325
▁shama	-8.33377
iyon	-8.33528
▁aahista	-8.33532
▁uTh	-8.33658
▁sine	-8.3375
▁mile	-8.33942
▁wafa	-8.3395
▁bala	-8.34033
▁rakkha	-8.34129
▁hazar	-8.34144
▁junun	-8.34554
▁karne	-8.3501
▁Ha	-8.35891
alam	-8.35911
▁maut	-8.35992
▁paida	-8.35999
▁KHat	-8.36137
▁diwana	-8.36292
▁sanam	-8.3633
▁lahu	-8.36609
▁dawa	-8.36994
▁man	-8.37108
▁diwar	-8.37444
▁lete	-8.37515
▁asar	-8.37713
▁sau	-8.38059
▁mahfil	-8.38162
em	-8.38234
▁hae	-8.38367
chaman	-8.38424
▁lag	-8.38477
▁deta	-8.38643
▁go	-8.38743
▁utar	-8.38764
bahaar	-8.39012
har	-8.39076
▁sahra	-8.39491
▁Tuk	-8.39496
▁samjhe	-8.39504
suKHan	-8.397
▁tumhaare	-8.39724
▁mara	-8.39788
▁J	-8.40278
▁ma	-8.40352
▁dida	-8.40483
▁paDe	-8.40663
▁makan	-8.40694
nazar	-8.40814
▁badal	-8.40817
▁Insha	-8.40964
▁talak	-8.40966
▁qasam	-8.42288
▁jun	-8.42329
▁karna	-8.42525
▁tamasha	-8.42688
▁parda	-8.42875
firaq	-8.42957
▁hogi	-8.43111
KHun	-8.43285
▁hasrat	-8.438
▁pyar	-8.43841
▁itni	-8.44235
▁han	-8.44394
▁mushkil	-8.44407
▁sach	-8.44432
▁kafir	-8.44532
▁chup	-8.44903
▁ro	-8.44919
jahan	-8.44992
▁kaho	-8.4524
▁kuche	-8.45242
▁dikha	-8.45786
▁yaro	-8.4579
war	-8.45875
▁T	-8.4602
▁bulbul	-8.46108
▁Allah	-8.46278
wasl	-8.46317
▁Sha	-8.46392
▁saf	-8.46407
▁lagta	-8.46444
▁kahen	-8.46484
▁zamana	-8.46899
▁chuka	-8.46939
▁pi	-8.47278
qatil	-8.47728
safar	-8.47805
lab	-8.47855
▁dasht	-8.47906
▁kahiye	-8.48054
▁paya	-8.48161
▁kaisa	-8.48402
KHuda	-8.48426
▁aashna	-8.48538
▁dua	-8.49203
▁baDh	-8.49292
▁zikr	-8.49753
▁sher	-8.49827
▁sabr	-8.50047
wa	-8.50103
▁bu	-8.50569
el	-8.50698
▁sair	-8.50791
▁hosh	-8.50879
▁suKHan	-8.50984
▁khul	-8.51129
▁raaz	-8.51211
▁rakhte	-8.51253
▁chhupa	-8.51531
▁sang	-8.52043
▁dekhna	-8.52107
▁shor	-8.52547
sham	-8.52695
▁qatil	-8.53144
haal	-8.53199
▁kijiye	-8.53259
▁patthar	-8.53275
▁jaun	-8.53314
▁hashr	-8.53606
▁saya	-8.53645
▁kaT	-8.53756
▁rahte	-8.53894
r	-8.53991
sahar	-8.54213
ri	-8.5467
▁badan	-8.54789
▁pahlu	-8.54804
▁shaKHs	-8.54815
araz	-8.54859
▁ghaDi	-8.55004
aqi	-8.55166
▁tumhaari	-8.55515
dagh	-8.55709
▁nala	-8.55837
▁li	-8.56066
▁zalim	-8.56219
▁ziyaada	-8.56227
▁nind	-8.56228
▁aadmi	-8.56233
riyaz	-8.56383
▁jao	-8.56409
▁falak	-8.56665
iye	-8.5715
▁insan	-8.5717
▁gain	-8.57549
▁baiTh	-8.57616
▁howe	-8.57659
▁ranj	-8.57788
▁ahd	-8.57906
junun	-8.57996
chashm	-8.57998
▁abr	-8.58165
▁mast	-8.58331
▁shaKH	-8.58625
▁jaegi	-8.58685
faraaz	-8.5871
▁KHair	-8.58915
▁KHushi	-8.59037
enge	-8.59094
iyaz	-8.59173
▁andaz	-8.59408
▁thin	-8.59412
▁muddat	-8.59937
▁aatish	-8.60094
ghaalib	-8.60283
ga	-8.6041
nigah	-8.60629
k	-8.60813
dard	-8.6088
iraj	-8.61061
▁wa	-8.61178
▁kahne	-8.61255
▁chaar	-8.6146
urang	-8.61615
▁wahan	-8.61642
▁der	-8.62157
▁gardish	-8.6238
▁jawab	-8.62589
▁saba	-8.62688
diwar	-8.62747
▁chiz	-8.63134
▁ku	-8.63177
▁KHar	-8.63579
▁dun	-8.63806
▁baal	-8.64216
zulf	-8.64372
siraj	-8.64837
ye	-8.65091
▁KHarab	-8.65211
▁daur	-8.65351
▁tanha	-8.65386
▁aain	-8.65548
▁hathon	-8.65593
▁achchhi	-8.65693
v	-8.65764
▁bahar	-8.65826
▁haalat	-8.65958
▁leta	-8.65959
gah	-8.66193
▁diye	-8.66498
da	-8.66554
▁rashk	-8.66607
▁paD	-8.66749
▁gulshan	-8.66818
la	-8.67008
▁KHali	-8.67029
▁wahshat	-8.67044
▁miyan	-8.67349
▁samajhte	-8.67408
▁chaak	-8.67699
▁chhup	-8.67746
▁donon	-8.68147
nashin	-8.68149
▁guman	-8.6818
▁jism	-8.68325
akh	-8.68342
▁hasin	-8.6852
▁Nas	-8.68821
tab	-8.6913
▁sayyaad	-8.69132
▁haq	-8.69373
▁su	-8.69741
s	-8.69762
▁waste	-8.6984
▁dekhe	-8.70374
▁hasil	-8.7084
▁jaante	-8.71276
KHane	-8.71446
▁sahar	-8.71457
hifai	-8.71478
▁taswir	-8.71663
▁tamanna	-8.71797
▁intizar	-8.72004
▁kije	-8.72236
▁shakl	-8.72387
azmi	-8.72503
▁bhula	-8.72541
▁pahuncha	-8.72716
▁fikr	-8.72781
▁hairan	-8.72899
▁pata	-8.72918
▁garm	-8.73095
▁len	-8.73114
▁fasl	-8.73476
▁jagah	-8.73516
▁josh	-8.73571
▁aabaad	-8.73584
▁mal	-8.7374
hijr	-8.73798
▁bahr	-8.73959
▁ruh	-8.7405
▁jaiye	-8.7434
▁qismat	-8.74369
▁khol	-8.74419
▁qatl	-8.74524
▁wala	-8.74556
▁K	-8.7458
sim	-8.74966
▁gila	-8.75113
▁gale	-8.75138
▁hawas	-8.75241
▁kho	-8.7535
▁qad	-8.75407
▁luT	-8.75646
▁sahab	-8.76199
▁jaenge	-8.76199
KHud	-8.76293
▁soz	-8.76687
▁dinon	-8.76725
▁raushan	-8.77231
▁gareban	-8.77457
▁den	-8.77492
▁aana	-8.77532
KHwab	-8.77549
chand	-8.7755
▁sari	-8.77593
mah	-8.77641
▁bimar	-8.77658
▁uD	-8.77664
▁karti	-8.77698
▁Ra	-8.77729
dan	-8.7789
▁misl	-8.7792
▁paDi	-8.78123
puri	-8.78155
▁gharaz	-8.78255
▁baD	-8.78278
▁uDa	-8.7828
hasrat	-8.78518
▁aawe	-8.78665
▁bayan	-8.78676
▁nishan	-8.7875
▁soch	-8.79001
hin	-8.79082
▁barq	-8.79228
▁yani	-8.79326
▁kamar	-8.79669
▁pur	-8.7986
▁KHatir	-8.80133
▁milne	-8.80136
▁dukh	-8.80361
▁guzre	-8.80416
▁raho	-8.80433
▁bata	-8.80433
ali	-8.80474
ja	-8.80485
▁pahunche	-8.80603
▁dhup	-8.80753
▁ghazab	-8.80853
▁nasib	-8.81144
▁chali	-8.81303
mi	-8.81469
▁khinch	-8.81476
▁bandhe	-8.81526
kash	-8.82352
su	-8.82514
▁sarw	-8.82662
▁baghair	-8.8269
▁waiz	-8.82784
▁zahid	-8.82806
▁kitne	-8.82913
▁goya	-8.83025
▁jafa	-8.83052
▁sakte	-8.83623
▁Momin	-8.83624
▁shikwa	-8.83692
▁faqat	-8.83704
▁dekhiye	-8.83792
▁sina	-8.84022
▁wada	-8.84041
▁chuke	-8.84121
asad	-8.8431
▁D	-8.84418
▁pyare	-8.84639
▁zahr	-8.84644
pur	-8.84675
▁honge	-8.84788
▁raqib	-8.84797
▁lakh	-8.84905
▁kai	-8.85212
tamanna	-8.85354
hasti	-8.85385
▁tumhaara	-8.85613
▁aasan	-8.85619
▁andar	-8.85656
▁KHushbu	-8.85694
▁bosa	-8.85793
▁TuT	-8.85799
▁kahna	-8.85996
▁qafas	-8.8629
▁tabiat	-8.86673
▁KHana	-8.86822
▁rasta	-8.86853
▁saman	-8.86998
▁hargiz	-8.87643
am	-8.87644
▁chaht	-8.87873
▁Na	-8.88478
▁jawani	-8.88608
▁maqam	-8.88732
z	-8.89096
▁jama	-8.89304
▁rahti	-8.89311
idar	-8.89351
▁KHwahish	-8.89625
tan	-8.89676
▁zer	-8.89859
▁ghubar	-8.89924
ana	-8.89931
▁dekhi	-8.90002
▁ghuncha	-8.90042
▁talab	-8.9053
▁suraj	-8.9079
▁mana	-8.91306
▁nikalt	-8.91691
▁shai	-8.91894
▁bura	-8.91968
▁gard	-8.92593
▁bujh	-8.92793
▁yunhi	-8.92974
▁garmi	-8.92993
▁lazzat	-8.93004
▁haqiqat	-8.93122
▁tark	-8.93132
rad	-8.93151
▁bujha	-8.93254
▁khula	-8.9333
▁dekhta	-8.93643
▁jaunga	-8.94066
▁shan	-8.94185
▁zanjir	-8.94199
▁Mun	-8.94319
▁hisab	-8.94456
iyazi	-8.94803
▁baja	-8.94806
jaanan	-8.94932
▁toD	-8.95174
▁kaisi	-8.9525
▁yaqin	-8.95358
▁nur	-8.9559
ega	-8.95772
▁zinda	-8.96124
ohammad	-8.96204
▁saza	-8.96208
▁KHafa	-8.96227
▁qabil	-8.96241
▁darmiyan	-8.96243
▁kabhu	-8.96267
▁Al	-8.96586
▁shah	-8.96736
▁diwan	-8.96761
▁rahn	-8.97065
▁zor	-8.97408
▁hazaron	-8.97524
▁sara	-8.97589
▁karenge	-8.98112
▁chehre	-8.98134
▁sauda	-8.98192
sitam	-8.98319
▁mehman	-8.98468
▁hamesha	-8.98502
ra	-8.98625
▁tasawwur	-8.98721
subh	-8.98971
▁likh	-8.99009
watan	-8.9926
▁tang	-8.99454
▁bazar	-8.99514
sad	-8.99579
▁manind	-8.99614
▁dhyan	-8.99616
▁Alla	-8.99618
▁raushni	-8.99704
▁gardan	-9.00039
chaar	-9.00146
▁pesh	-9.00344
ada	-9.00383
▁guzri	-9.00594
▁naseh	-9.007
▁rote	-9.00901
▁rag	-9.01041
▁kucha	-9.0154
▁sharm	-9.01832
▁aao	-9.01845
sharab	-9.01882
▁haar	-9.02033
▁chuki	-9.02038
▁KHauf	-9.02082
nam	-9.02085
▁fursat	-9.02129
▁diwane	-9.02129
▁arz	-9.02292
▁sabab	-9.02786
kad	-9.02901
ashk	-9.02986
▁pichhe	-9.03234
▁azab	-9.03265
▁manzar	-9.03294
▁qatra	-9.03321
▁parde	-9.03818
▁tufan	-9.03887
▁rafta	-9.03951
▁naya	-9.04003
▁samundar	-9.04372
▁raste	-9.04519
▁chehra	-9.0455
▁chandni	-9.04559
▁baada	-9.0469
▁baiTha	-9.04792
qarar	-9.04829
jam	-9.04894
▁bol	-9.0516
KHam	-9.05237
ehl	-9.05258
KHudi	-9.05375
ulfat	-9.05511
munir	-9.05568
▁ron	-9.05586
▁musafir	-9.05591
▁shoala	-9.05767
hawa	-9.05797
▁dekhn	-9.05952
▁rahega	-9.05969
are	-9.06015
▁saghar	-9.06072
hawas	-9.06085
▁rakhta	-9.0621
▁tez	-9.06287
▁taDap	-9.06402
hakir	-9.06617
▁chalo	-9.06711
▁talwar	-9.06711
▁gum	-9.06718
KHayal	-9.06787
KHabar	-9.06808
▁talash	-9.06832
▁pai	-9.0686
▁dena	-9.06889
▁wahin	-9.06923
▁aks	-9.06934
▁KHanjar	-9.06986
▁Dag	-9.07004
ashna	-9.0709
▁pareshan	-9.07157
▁majnun	-9.07416
▁dekhen	-9.07486
de	-9.07519
▁dahan	-9.07554
▁KHizan	-9.07637
hijran	-9.07797
yak	-9.07842
urat	-9.07892
ushtaq	-9.0802
jurat	-9.08043
tibar	-9.08292
▁dastan	-9.08329
saba	-9.08375
▁matlab	-9.0854
▁chahe	-9.08905
▁sans	-9.08939
▁kitab	-9.09095
▁KHam	-9.09276
igar	-9.09295
zauq	-9.0934
shahr	-9.09354
siyah	-9.09385
▁nazr	-9.09586
▁qadr	-9.09805
▁jawan	-9.10103
▁qaid	-9.10185
▁nikalta	-9.10585
landar	-9.10596
▁had	-9.10819
▁bole	-9.11322
▁kan	-9.11398
▁chheD	-9.11813
▁asir	-9.11842
insha	-9.11916
ah	-9.11941
▁qissa	-9.12005
didar	-9.12037
▁gesu	-9.12193
pan	-9.12211
▁zahir	-9.12355
▁bal	-9.12398
▁bacha	-9.12454
▁hijab	-9.1266
▁judai	-9.12754
▁tanhai	-9.12853
▁faqir	-9.12948
▁aksar	-9.13253
▁itne	-9.13285
▁sunte	-9.13597
▁saka	-9.13623
▁gharib	-9.13665
adam	-9.13733
▁Mo	-9.13742
▁sahib	-9.13842
▁udas	-9.1409
bu	-9.14518
ji	-9.14546
▁aaftab	-9.1455
▁KHamosh	-9.14703
▁saKHt	-9.14825
▁dekhun	-9.14971
▁saz	-9.15049
▁bah	-9.1533
▁nama	-9.15616
▁pal	-9.15621
▁behtar	-9.159
▁dhuan	-9.1591
▁jangal	-9.15919
rakh	-9.15942
visal	-9.16024
▁hairat	-9.16046
▁hazrat	-9.16065
▁shisha	-9.16078
▁wal	-9.16109
▁zindan	-9.16164
▁aaega	-9.16299
▁shabnam	-9.16503
▁nafas	-9.16715
▁fariyaad	-9.16778
▁karam	-9.16897
▁lal	-9.16917
▁ruk	-9.17019
▁chain	-9.17277
▁haram	-9.17288
▁sabhi	-9.17468
▁aish	-9.17476
▁siyah	-9.17483
▁ummid	-9.17561
▁sawal	-9.17577
▁barbaad	-9.17611
▁hasti	-9.1763
sal	-9.17658
▁az	-9.17687
▁aashiyan	-9.18373
▁paDh	-9.1862
▁khel	-9.18707
hayat	-9.18736
▁guftugu	-9.189
▁uThta	-9.19086
▁mizaj	-9.19138
▁puchho	-9.19521
▁sad	-9.19586
yon	-9.19718
▁rawan	-9.19779
▁jag	-9.19976
▁ghafil	-9.20095
zada	-9.20124
sauda	-9.20237
butan	-9.20247
▁umid	-9.2036
j	-9.20399
▁sare	-9.20786
ruKH	-9.20811
▁zat	-9.20843
▁pech	-9.20895
▁jaanta	-9.21061
dast	-9.21111
KHwar	-9.21269
▁dad	-9.21436
▁barson	-9.21514
▁aafat	-9.21548
▁ehsan	-9.2156
▁phirte	-9.21607
▁KHalwat	-9.21691
marg	-9.21707
▁faza	-9.21758
▁murgh	-9.21782
▁pairahan	-9.21838
▁likha	-9.21863
din	-9.22081
rab	-9.22154
▁ruswa	-9.22288
hi	-9.22636
▁jhuT	-9.22659
▁rahen	-9.22684
▁pher	-9.22712
▁mili	-9.22912
▁ulfat	-9.22991
▁jaanib	-9.23003
▁qurban	-9.23035
w	-9.23047
kada	-9.23065
▁khule	-9.23141
mizhgan	-9.23141
duniya	-9.2315
▁abas	-9.23194
▁tah	-9.23205
▁kahti	-9.23214
▁rishta	-9.2324
badan	-9.23338
▁shoKHi	-9.23351
▁shahid	-9.2336
saz	-9.23425
▁aql	-9.23457
▁zar	-9.23597
mu	-9.23897
▁dikhai	-9.23991
jab	-9.24297
▁visal	-9.2431
▁aaram	-9.24525
▁ajib	-9.24532
▁lena	-9.24575
karam	-9.24639
bad	-9.24673
▁daulat	-9.2471
▁deti	-9.24974
▁taza	-9.25089
▁dana	-9.25125
srat	-9.25166
▁gir	-9.25377
KHush	-9.25434
dari	-9.2554
▁sitar	-9.25647
▁zauq	-9.25899
iraq	-9.25915
▁kitna	-9.25938
▁barg	-9.2594
ndo	-9.25986
numa	-9.26025
▁justuju	-9.26033
▁tarz	-9.26122
re	-9.26139
▁baham	-9.26159
▁mehrban	-9.26184
▁ilahi	-9.26227
rawan	-9.26267
▁sabza	-9.26306
▁jannat	-9.26342
▁Qas	-9.26396
▁kash	-9.26495
▁bose	-9.26692
▁aazad	-9.26707
ase	-9.26714
abru	-9.27097
▁jawe	-9.27178
▁jamal	-9.27201
raaz	-9.27278
▁mani	-9.27296
▁Thahra	-9.27347
▁paigham	-9.2744
▁chaal	-9.27472
▁qarar	-9.27487
▁zulm	-9.2749
▁Dha	-9.2751
▁Moha	-9.27517
▁anjuman	-9.27604
▁chalte	-9.27656
qadam	-9.27715
▁banda	-9.2773
▁rakkhe	-9.27966
▁baDa	-9.27991
▁KHu	-9.28003
asar	-9.28092
▁naghma	-9.28106
▁mehr	-9.28212
▁wah	-9.28283
bagh	-9.28319
▁abru	-9.28923
▁jinhen	-9.28962
▁bane	-9.28985
ikh	-9.29007
▁bola	-9.29318
▁kanT	-9.29353
ashiq	-9.29432
ju	-9.29586
▁zarra	-9.29789
hu	-9.29817
nasir	-9.29868
▁honT	-9.30026
▁Dub	-9.30442
▁lae	-9.30499
▁pyas	-9.30525
▁Dal	-9.30582
▁kitni	-9.30593
▁mumkin	-9.30635
▁KHas	-9.30854
▁pahchan	-9.3086
▁jaga	-9.30892
▁rasm	-9.30893
haram	-9.30916
▁sadqe	-9.3098
▁baDha	-9.31013
bas	-9.31021
▁bigaD	-9.31414
▁karwan	-9.31431
▁fareb	-9.31465
dost	-9.31658
KHak	-9.3173
▁nazuk	-9.31849
▁chamak	-9.31931
▁nadan	-9.32045
lum	-9.32075
rahim	-9.32123
▁qarib	-9.32163
▁lafz	-9.32165
niyaz	-9.32241
▁shajar	-9.32266
▁baha	-9.32287
▁khila	-9.32353
▁begana	-9.3236
umr	-9.32462
▁adu	-9.32539
zan	-9.3255
tarab	-9.32725
▁dikhla	-9.32744
▁kamal	-9.32944
jo	-9.33395
▁chhuT	-9.33438
ku	-9.33468
▁jitn	-9.33509
▁rind	-9.33689
talab	-9.33764
ghaur	-9.33852
▁taqdir	-9.33882
▁hanste	-9.33958
▁miT	-9.34006
▁taqat	-9.34041
▁gor	-9.34047
zindagi	-9.34105
▁zabt	-9.34111
▁sharar	-9.34133
▁bewafa	-9.34211
▁bich	-9.34228
auq	-9.34459
▁gira	-9.34969
man	-9.35022
▁mizhgan	-9.35141
▁lala	-9.35159
▁mahw	-9.3516
aina	-9.35275
▁kaf	-9.35451
▁sail	-9.35593
▁baadal	-9.35623
▁mang	-9.35781
li	-9.35827
▁dosti	-9.35908
▁bula	-9.35937
oge	-9.35973
▁maze	-9.36095
▁girya	-9.36104
afi	-9.36138
▁puchha	-9.36167
▁nale	-9.36372
▁fughan	-9.36397
bhar	-9.36826
daman	-9.36992
▁shikayat	-9.37075
▁farq	-9.37087
kal	-9.37129
▁darkar	-9.37244
▁rahat	-9.37322
ala	-9.37341
momin	-9.3739
▁parwana	-9.37485
▁hunar	-9.37492
u	-9.38306
zaban	-9.38468
▁raaten	-9.38488
wo	-9.38706
▁kaman	-9.38724
▁khaDa	-9.38799
▁maujud	-9.38831
▁banaya	-9.38936
▁puchhte	-9.38938
▁afsos	-9.39022
ham	-9.39191
jamal	-9.39262
▁tham	-9.39328
▁kahani	-9.39417
▁gunah	-9.39434
▁kami	-9.39445
is	-9.39843
▁baam	-9.40028
▁hur	-9.40055
▁bijli	-9.40441
▁miTTi	-9.40452
▁majlis	-9.40572
▁laya	-9.40608
baKHt	-9.40648
▁imtihan	-9.40684
ke	-9.40705
▁nashsha	-9.4073
▁qais	-9.40758
▁moti	-9.40795
▁qudrat	-9.40796
▁bikhar	-9.40838
▁marn	-9.40887
bazm	-9.40963
▁laila	-9.40991
▁pae	-9.41038
gir	-9.41396
sa	-9.41425
us	-9.41457
▁pahunch	-9.41866
tawan	-9.42252
▁hujum	-9.42306
▁taur	-9.42336
▁shukr	-9.42402
ghair	-9.42594
bala	-9.42597
▁juz	-9.42664
▁iztirab	-9.4267
nau	-9.42678
kya	-9.42805
▁sama	-9.42931
▁gah	-9.43103
▁rok	-9.43121
D	-9.43173
hon	-9.43209
▁sahil	-9.43264
roz	-9.43349
▁payam	-9.43382
▁ruKHsar	-9.43398
▁rona	-9.43511
▁lai	-9.43532
parast	-9.43547
▁nikli	-9.43812
▁shikast	-9.43872
▁ilaj	-9.44048
▁fasana	-9.44138
▁said	-9.44158
▁a	-9.44191
▁milti	-9.44228
nawa	-9.4429
▁mulaqat	-9.44395
ahat	-9.44395
hum	-9.44462
soz	-9.44475
▁gulab	-9.44504
wahshat	-9.44539
jafa	-9.44545
▁jauhar	-9.44745
guman	-9.44835
▁jaanan	-9.4492
par	-9.4493
▁ghabra	-9.45034
▁qasid	-9.45527
sahra	-9.45628
▁hayat	-9.4566
▁tishna	-9.457
▁raunaq	-9.45844
▁khaDe	-9.45877
▁muntazir	-9.45914
▁samt	-9.45926
▁zid	-9.45932
▁hamdam	-9.45988
▁war	-9.45988
▁ghurur	-9.4601
▁tasir	-9.4604
▁dhar	-9.46048
▁sohbat	-9.46076
▁pir	-9.46094
▁bach	-9.46143
ai	-9.4623
▁kali	-9.46293
▁bayaban	-9.46339
▁viran	-9.46349
tamasha	-9.46391
▁pasand	-9.46576
ahir	-9.46625
▁suno	-9.46832
▁rabt	-9.47569
Di	-9.47581
▁masti	-9.47611
arzu	-9.47655
▁sakti	-9.47659
▁arman	-9.4766
▁upar	-9.47663
▁denge	-9.47714
▁dusra	-9.47813
▁dushwar	-9.4784
▁gosh	-9.47909
▁jadu	-9.47945
▁inkar	-9.47957
▁didar	-9.47966
▁Thahar	-9.47988
▁nawa	-9.48058
▁mare	-9.48191
▁qalam	-9.48202
▁koh	-9.48266
qafas	-9.48278
manzil	-9.48279
▁muddaa	-9.48286
ul	-9.48296
baam	-9.48438
▁Dhal	-9.48666
▁chha	-9.48699
▁nigahen	-9.48735
▁ghulam	-9.4879
▁musalman	-9.48861
udh	-9.48904
bazar	-9.48977
▁lakhon	-9.48991
▁basti	-9.49135
KHizan	-9.49413
ka	-9.49438
▁TukDe	-9.49491
▁jabin	-9.49546
▁alag	-9.49548
▁dukan	-9.49549
▁gunahgar	-9.49575
▁manzur	-9.49583
▁baDe	-9.49609
▁qabr	-9.49656
▁ahwal	-9.49725
▁halqa	-9.49741
▁dega	-9.49826
▁nisar	-9.4992
▁tauba	-9.49957
▁did	-9.49959
▁charKH	-9.5
▁gulistan	-9.50126
parda	-9.50204
▁sal	-9.50254
▁miTa	-9.50453
had	-9.50677
▁naqab	-9.50717
▁ruswai	-9.50902
▁phirta	-9.51006
zamin	-9.51082
al	-9.51117
▁fitna	-9.51128
▁taj	-9.51135
▁shikar	-9.51508
▁sarapa	-9.51597
▁surKH	-9.51645
▁yusuf	-9.51731
hina	-9.51914
▁iman	-9.51943
▁shad	-9.51966
▁baras	-9.52075
faiz	-9.52141
furqat	-9.52152
▁iKHtiyar	-9.52281
▁rahna	-9.52452
auda	-9.52488
▁hansi	-9.52519
▁chaha	-9.52531
▁bandha	-9.5261
▁bandh	-9.52768
▁nasim	-9.53039
do	-9.53057
▁basar	-9.5314
▁sabz	-9.53183
▁aziz	-9.53209
ahadur	-9.53429
▁KHata	-9.53475
▁sirf	-9.53521
▁adam	-9.5353
▁salam	-9.53546
▁sukh	-9.53563
▁baghban	-9.53668
▁mashuq	-9.53952
▁KHurshid	-9.53953
lala	-9.54042
▁KHatm	-9.54186
saman	-9.54198
▁son	-9.54277
▁kaba	-9.54334
aya	-9.54438
▁Tal	-9.54475
▁aaen	-9.54538
ara	-9.54918
sada	-9.55193
ak	-9.55411
▁san	-9.55427
▁samjho	-9.5543
▁barabar	-9.55451
▁aaghosh	-9.55454
baad	-9.55463
▁pak	-9.55472
▁sae	-9.55492
▁shamil	-9.55496
▁huzur	-9.55651
▁tain	-9.55713
▁barpa	-9.558
▁ghaTa	-9.55863
ian	-9.55932
▁nargis	-9.55937
▁izhaar	-9.5599
fughan	-9.56197
▁haya	-9.56371
▁gulzar	-9.56611
▁bhari	-9.5695
▁phirti	-9.56993
girya	-9.56999
f	-9.57051
mani	-9.57424
▁wagarna	-9.57476
▁panch	-9.57481
zist	-9.57489
▁tadbir	-9.575
▁ilzam	-9.57511
▁galiyon	-9.57529
▁ghash	-9.57564
▁pahar	-9.57599
▁roya	-9.57627
▁lamha	-9.5769
▁puchhe	-9.57796
▁ruKHsat	-9.57806
▁hausla	-9.57848
▁KHalq	-9.5786
▁misal	-9.57887
▁kashti	-9.57906
▁KHum	-9.57969
▁nau	-9.58045
▁dair	-9.58136
▁rahguzar	-9.58245
▁chhin	-9.58282
▁shabab	-9.58573
▁rab	-9.58711
▁pila	-9.58981
▁rakha	-9.59128
il	-9.59377
▁lun	-9.59546
▁gawara	-9.59651
▁masjid	-9.59758
▁dimagh	-9.60139
▁shamshir	-9.60192
falak	-9.60415
dahan	-9.60434
tegh	-9.60467
▁taghaful	-9.60519
paT	-9.60572
▁jite	-9.6058
▁muskura	-9.60596
fana	-9.60616
▁mo	-9.6072
gan	-9.60761
▁qaba	-9.61007
▁bichhaD	-9.61259
▁sikh	-9.61431
shama	-9.61821
dad	-9.61866
▁salamat	-9.61878
▁ayan	-9.61905
▁bha	-9.61988
▁malal	-9.62019
KHarab	-9.62138
▁mart	-9.6216
▁mushtaq	-9.622
mast	-9.62263
dariya	-9.62475
mahfil	-9.62589
zaKHm	-9.62596
saqi	-9.62638
KHas	-9.62807
▁ruTh	-9.63088
▁dho	-9.63233
wali	-9.63335
▁jhalak	-9.63505
baz	-9.63548
▁buri	-9.63591
▁jhuka	-9.6378
▁muqaddar	-9.63856
akbar	-9.63893
▁thak	-9.63906
▁phuT	-9.63953
▁lagti	-9.64034
makan	-9.6409
▁KHaridar	-9.64176
▁huin	-9.64408
▁namak	-9.64504
▁KHamoshi	-9.64535
▁aazar	-9.64637
▁bhare	-9.64742
jaun	-9.64789
mahshar	-9.64799
▁bhag	-9.64975
nasim	-9.65058
▁guzra	-9.65192
allah	-9.65197
▁zard	-9.65233
▁fana	-9.65421
KHu	-9.65633
▁baz	-9.65635
▁giraftar	-9.65847
ajr	-9.65849
▁KHal	-9.65994
▁hina	-9.66044
▁dunga	-9.66131
▁Thahre	-9.66157
▁galiyan	-9.66218
mar	-9.66219
▁barish	-9.66232
▁peD	-9.66462
▁milte	-9.66498
▁himmat	-9.66512
▁mahak	-9.66633
andaz	-9.66785
di	-9.66789
▁samajhta	-9.66847
▁shirin	-9.66876
p	-9.6688
haq	-9.66905
▁haT	-9.66961
▁ghanim	-9.66978
▁uThae	-9.67036
dahr	-9.67072
oh	-9.67241
▁ras	-9.67406
▁furqat	-9.67549
zad	-9.6768
amir	-9.67795
▁uThe	-9.67827
▁majbur	-9.67981
dida	-9.67996
▁rangin	-9.6803
main	-9.68116
mon	-9.68271
▁lipaT	-9.68372
▁barsat	-9.68424
▁badla	-9.68429
▁afsana	-9.6845
▁ghalat	-9.68485
▁maqtal	-9.68573
▁turbat	-9.68573
▁tabassum	-9.68691
▁shola	-9.68695
▁bistar	-9.68698
▁jurm	-9.68721
▁ghairat	-9.68752
▁arsh	-9.68792
▁wahm	-9.68798
▁KHizr	-9.6881
Da	-9.68993
g	-9.69098
ahl	-9.69331
gareban	-9.69408
sanam	-9.69441
jalwa	-9.69496
egi	-9.69592
aish	-9.69788
▁baala	-9.69897
▁zarur	-9.69935
inai	-9.69995
KHat	-9.70241
▁aamad	-9.70404
▁pan	-9.70475
▁firaq	-9.70527
T	-9.70534
▁mard	-9.70556
▁ishaara	-9.70626
unawwar	-9.70642
▁palaT	-9.70677
▁aaghaz	-9.70679
▁waqif	-9.70679
▁chhoDa	-9.70683
▁mubarak	-9.70745
▁faeda	-9.70753
▁intiha	-9.70753
mughan	-9.70842
id	-9.70866
ur	-9.70878
▁ehsas	-9.70904
▁silsila	-9.70956
KHwan	-9.70984
▁rakhti	-9.71019
wan	-9.71052
▁hangama	-9.71074
▁thoDi	-9.71119
mehr	-9.71305
▁chalna	-9.71306
▁rota	-9.71323
▁bismil	-9.71574
▁nihan	-9.71644
▁taq	-9.71675
nafas	-9.71744
KHair	-9.71797
zamana	-9.71815
chaak	-9.71861
▁kalam	-9.71986
pai	-9.72024
nkar	-9.72104
bayan	-9.72162
▁bab	-9.72324
▁tis	-9.72565
▁sikha	-9.72736
▁marg	-9.72908
▁shish	-9.72919
ultan	-9.73025
▁uTTha	-9.73057
▁basant	-9.73116
▁iqrar	-9.73197
▁mahram	-9.73296
▁qahr	-9.73304
▁uThaya	-9.73324
▁kunj	-9.73399
▁girah	-9.73436
▁wad	-9.73459
▁farhad	-9.73482
baada	-9.73514
▁paDta	-9.73589
▁wadi	-9.7362
▁aandhi	-9.73915
▁jhuk	-9.74064
asman	-9.74083
bazi	-9.7423
▁muj	-9.74344
▁marna	-9.74455
▁mange	-9.74571
nala	-9.74597
▁hu	-9.75147
▁betab	-9.75196
zat	-9.75333
▁shart	-9.7546
▁dijiye	-9.75496
▁nazdik	-9.75496
▁badle	-9.75547
▁bund	-9.75605
azar	-9.75654
▁koTh	-9.75789
▁phaila	-9.7585
▁sambhal	-9.75967
▁sitara	-9.76007
KHwah	-9.76022
▁waza	-9.76105
▁milna	-9.76171
▁TuTa	-9.76178
▁sard	-9.76228
▁chaDha	-9.76313
▁rut	-9.76566
▁chhu	-9.7662
▁luTa	-9.76651
waqt	-9.76731
KHuban	-9.76736
naqab	-9.76744
jabin	-9.76793
ruKHsar	-9.76863
kashi	-9.76904
qarari	-9.76906
▁aam	-9.77108
▁gada	-9.77643
kari	-9.77811
▁sune	-9.77813
KHez	-9.77996
majruh	-9.77996
▁rawa	-9.78004
▁uzr	-9.78078
▁jumbish	-9.78111
▁ulTa	-9.78134
▁raqs	-9.78209
▁dayar	-9.78211
▁howega	-9.78275
▁ajal	-9.78366
▁irada	-9.7838
▁ghaflat	-9.78405
▁qaza	-9.78515
pareshan	-9.78526
▁KHushk	-9.78649
▁rakhna	-9.78756
▁sehr	-9.78854
▁raftar	-9.78974
▁rahun	-9.79076
giran	-9.79279
majnun	-9.79289
intizar	-9.79291
qayamat	-9.79303
ram	-9.79324
▁aas	-9.79641
gun	-9.79812
adha	-9.79918
▁yas	-9.80077
▁ga	-9.80153
▁lauT	-9.80266
▁aastan	-9.80278
▁KHudai	-9.80523
▁dhun	-9.80553
▁jaisa	-9.806
▁taqaza	-9.80609
▁nafrat	-9.80614
▁muft	-9.80615
▁qafila	-9.80764
▁aabru	-9.8083
▁phal	-9.80857
▁gauhar	-9.80947
▁aghyar	-9.81114
▁nain	-9.81159
▁chura	-9.81499
KHar	-9.81634
▁ghaT	-9.81719
dushman	-9.81925
nishan	-9.81952
▁phira	-9.82352
san	-9.82479
hat	-9.82593
mina	-9.82753
dili	-9.82768
▁DhunD	-9.82817
nigar	-9.82826
▁bhej	-9.82843
▁sharma	-9.83178
▁lazim	-9.83244
▁daftar	-9.83247
▁bais	-9.8333
▁lagte	-9.83497
▁itab	-9.83557
▁jang	-9.83598
andi	-9.83619
▁paimana	-9.83667
▁jalwe	-9.83689
▁fitrat	-9.83726
tur	-9.83818
▁awwal	-9.83828
▁wajud	-9.839
▁uThi	-9.83906
▁masal	-9.83972
▁nishani	-9.84128
hur	-9.84175
▁sote	-9.84266
▁taron	-9.84418
kaf	-9.84455
haya	-9.84535
hashr	-9.84629
zindan	-9.84683
qaba	-9.84729
▁shair	-9.84776
qad	-9.84973
▁narm	-9.8527
nim	-9.85452
baal	-9.85509
▁mail	-9.85655
nawi	-9.85735
▁jazb	-9.85737
▁zarr	-9.85877
aKHir	-9.85907
▁aanch	-9.85922
▁pichhl	-9.85949
▁andalib	-9.85983
▁saki	-9.86012
▁mohtasib	-9.86019
▁khinche	-9.86077
ban	-9.8608
▁zindagani	-9.86125
▁shewa	-9.86154
▁bahane	-9.8617
ch	-9.86184
▁bahs	-9.86202
▁ilm	-9.86272
▁Dala	-9.86406
▁jaur	-9.86653
▁laD	-9.867
▁rahm	-9.87102
▁tale	-9.87114
▁khan	-9.87306
digar	-9.87392
taghaful	-9.87395
▁wali	-9.87402
asir	-9.87557
Daya	-9.87871
▁KHubi	-9.88099
▁mata	-9.8818
hai	-9.88309
▁tayyar	-9.8861
▁jaaniye	-9.88634
▁mehndi	-9.88672
▁nisbat	-9.88672
▁aastin	-9.88674
▁bhaari	-9.88677
▁dhoka	-9.88682
▁dije	-9.88707
▁darwaza	-9.88728
▁bhara	-9.88801
gh	-9.88846
▁alam	-9.88875
nur	-9.88891
▁zanu	-9.88983
but	-9.89016
▁matam	-9.89081
iyo	-9.89081
▁nikhat	-9.89093
▁jari	-9.89159
▁jalte	-9.89197
▁guhar	-9.89353
▁baT	-9.89392
nab	-9.89396
bin	-9.89573
▁achchhe	-9.89589
▁hila	-9.8977
pari	-9.89815
we	-9.89898
ran	-9.90037
band	-9.90056
▁nigar	-9.90114
pinhan	-9.90246
▁aar	-9.9028
▁kaj	-9.9031
gari	-9.90488
▁bani	-9.90539
ayyam	-9.90636
▁aib	-9.91021
▁jaanen	-9.91045
▁chun	-9.91063
▁chum	-9.91251
▁fan	-9.91373
▁masiha	-9.91387
▁sawar	-9.91418
kaam	-9.91461
KHal	-9.91499
▁muqabil	-9.91532
▁hanuz	-9.91532
▁tawiz	-9.91543
▁takiya	-9.9159
▁sakun	-9.91599
▁roe	-9.91622
▁chupke	-9.91627
▁tilism	-9.91657
▁subuk	-9.91678
unga	-9.91701
▁uqda	-9.91701
▁mazmun	-9.91736
▁musibat	-9.91736
▁qubul	-9.91736
as	-9.91761
▁uThti	-9.91777
▁sajda	-9.91965
kusha	-9.92007
▁du	-9.92019
▁anjam	-9.92083
▁banti	-9.92109
▁gosha	-9.92258
▁khile	-9.92266
▁guzart	-9.92342
KHiram	-9.92361
hijab	-9.92423
▁tara	-9.9243
▁kushta	-9.92479
▁sharminda	-9.92494
posh	-9.92723
▁andhere	-9.92759
▁khinchi	-9.9279
dasht	-9.9312
nasib	-9.93174
kuchh	-9.9321
▁mahshar	-9.93217
mahtab	-9.9324
judai	-9.93253
gunah	-9.93297
q	-9.93303
sabab	-9.93313
▁KHuban	-9.93464
did	-9.93636
▁safa	-9.93923
KHan	-9.94089
▁karwaT	-9.94471
▁suragh	-9.94471
▁muKHtasar	-9.94498
▁patang	-9.94515
▁bawajud	-9.94525
▁faisl	-9.9453
▁palak	-9.94548
▁nok	-9.94568
▁nazakat	-9.94572
▁qimat	-9.94572
▁kohkan	-9.94575
▁wae	-9.94587
▁puran	-9.94589
▁chaT	-9.94681
▁jins	-9.94739
▁kafi	-9.94742
▁rafu	-9.94799
▁wasf	-9.94838
▁sahl	-9.94873
▁qatre	-9.94985
pas	-9.95076
▁sitamgar	-9.95115
je	-9.9519
▁khuli	-9.95382
▁ni	-9.95486
▁dud	-9.95536
▁chaara	-9.95551
▁TuTe	-9.95556
▁ram	-9.95582
▁giran	-9.95618
▁tair	-9.95621
▁bare	-9.95643
▁Dubo	-9.95794
▁hat	-9.95869
▁nahaq	-9.96061
▁buland	-9.96063
▁karega	-9.9611
▁lahr	-9.96119
▁nang	-9.96135
KHirad	-9.96216
jauhar	-9.96226
iKHtiyar	-9.96228
▁pahl	-9.96229
gulshan	-9.96258
barq	-9.96268
pasand	-9.96272
amal	-9.96452
sara	-9.96471
▁dosto	-9.96533
▁taba	-9.96549
kam	-9.96655
rangin	-9.96675
▁jald	-9.96998
▁aahu	-9.97138
▁Thahri	-9.97352
▁mayassar	-9.97501
▁utra	-9.97501
▁farishte	-9.97501
▁mahsus	-9.97509
▁talib	-9.97515
▁ajnabi	-9.97523
▁hukm	-9.97523
▁bharosa	-9.9754
▁lenge	-9.97597
▁para	-9.97641
▁paDti	-9.9769
▁bahana	-9.97736
▁dilbar	-9.97742
numai	-9.97867
▁uThte	-9.97871
▁chahat	-9.9791
▁sukun	-9.97975
▁minnat	-9.98
▁jada	-9.98036
▁takalluf	-9.98158
sang	-9.98183
▁kyunk	-9.98558
▁shana	-9.986
nihan	-9.98685
▁walo	-9.98812
▁sah	-9.98819
iyat	-9.98886
▁pinhan	-9.98917
dauran	-9.9906
farosh	-9.99209
ek	-9.99247
pech	-9.99273
nadim	-9.9935
raat	-9.99423
▁gahe	-9.99682
▁banta	-9.99731
▁baKHt	-9.99781
le	-9.99956
▁banat	-9.99981
▁al	-10.0007
▁darban	-10.0012
ko	-10.0032
▁kaTi	-10.0035
▁ghunch	-10.0049
▁lijiye	-10.0063
▁sanp	-10.0064
▁chhanw	-10.0066
▁Dart	-10.0074
▁fida	-10.0075
tarah	-10.0081
▁sukut	-10.0085
▁jina	-10.0093
▁namaz	-10.0102
▁inayat	-10.0102
▁qadah	-10.0106
▁giri	-10.011
▁dastar	-10.0112
▁subu	-10.0115
dy	-10.0122
▁KHumar	-10.0133
▁sanwar	-10.0139
▁jaldi	-10.0141
▁aaenge	-10.0143
▁aaegi	-10.0154
▁khulta	-10.0163
rasa	-10.018
▁KHatra	-10.0193
▁kasa	-10.0193
jawani	-10.0234
▁ra	-10.0247
saghar	-10.0259
ed	-10.028
lagi	-10.032
▁phaT	-10.0324
▁chalen	-10.0345
mal	-10.0354
cha	-10.0381
▁bojh	-10.0384
▁chanchal	-10.0385
▁saugand	-10.0385
▁ujaD	-10.0385
▁kaghaz	-10.0385
▁sharik	-10.0385
▁dhum	-10.0385
▁hangam	-10.0385
▁tawaqqo	-10.0387
▁akela	-10.0388
▁taklif	-10.0389
▁lamhe	-10.0389
▁sabit	-10.0389
▁phoD	-10.039
▁aawara	-10.0391
▁majra	-10.0392
▁sadgi	-10.0392
▁likkha	-10.0393
▁kinare	-10.0393
▁ghuss	-10.04
▁ganwa	-10.0402
arai	-10.0404
▁insaf	-10.0411
dozaKH	-10.0412
▁mahbub	-10.0413
▁karobar	-10.0416
▁zunnar	-10.0421
▁rakho	-10.0427
KH	-10.0436
▁pahna	-10.0438
▁habab	-10.0443
shanas	-10.0444
▁mizha	-10.0447
▁samar	-10.046
▁ziyan	-10.0462
abr	-10.0467
se	-10.047
▁pareshani	-10.0478
▁socha	-10.0489
▁puchhta	-10.0491
▁rahegi	-10.0496
▁chin	-10.0502
▁shikan	-10.0508
fareb	-10.0519
▁ju	-10.0527
▁mahtab	-10.0562
charagh	-10.0585
▁nashe	-10.0588
bismil	-10.0591
fikr	-10.0592
▁tifl	-10.0609
taza	-10.0618
▁uThan	-10.0621
▁harif	-10.0629
af	-10.0633
gulzar	-10.0633
▁ain	-10.0658
▁tumhi	-10.068
▁dusr	-10.0691
▁suni	-10.0693
▁dab	-10.0695
▁fasan	-10.0702
▁KHanda	-10.0707
▁wusat	-10.0714
▁ibtida	-10.0719
▁phunk	-10.0719
▁bigDa	-10.0719
▁jaisi	-10.072
▁mashhur	-10.0725
▁Dale	-10.0727
▁KHamushi	-10.073
▁puchhiye	-10.073
▁dikhaya	-10.0736
▁palk	-10.0736
▁far	-10.0737
kan	-10.0739
▁surKHi	-10.0743
▁janab	-10.0744
▁raegan	-10.076
▁bazu	-10.0763
baha	-10.0766
▁maidan	-10.0772
▁tamir	-10.0775
▁wajh	-10.0791
sina	-10.0798
bari	-10.0813
ida	-10.083
▁chahen	-10.0837
shikan	-10.0858
▁KHirad	-10.0862
▁naqsha	-10.0901
▁laDai	-10.0914
ghazal	-10.0931
raftar	-10.0935
lutf	-10.0937
▁wahshi	-10.095
dua	-10.0962
▁gaD	-10.0975
▁andher	-10.0975
▁paiman	-10.0979
▁Kh	-10.1001
▁bazi	-10.101
▁ghul	-10.1029
▁barham	-10.1036
▁lash	-10.1038
▁lata	-10.1058
▁ulaT	-10.1063
▁itr	-10.1071
▁chitwan	-10.1075
▁naKHl	-10.1079
▁ustad	-10.1081
▁mehrbani	-10.1082
▁badnam	-10.1082
▁sarf	-10.1087
▁nawak	-10.1088
▁kufr	-10.1088
▁kaenat	-10.1097
▁qibla	-10.11
▁araq	-10.1102
▁naznin	-10.1111
▁raza	-10.113
▁kaTe	-10.113
▁nihayat	-10.113
▁jitna	-10.1131
▁laKHt	-10.1134
jaani	-10.1155
▁parsa	-10.1162
▁surma	-10.117
▁zaruri	-10.117
rat	-10.1172
▁dikhata	-10.1176
▁dushmani	-10.1189
hosh	-10.119
▁dikhae	-10.1192
▁adab	-10.1211
▁tur	-10.123
▁kalej	-10.1235
▁chor	-10.125
gumani	-10.1256
▁phansa	-10.1269
▁sat	-10.1278
▁tare	-10.1288
bimar	-10.1294
shirin	-10.1295
qadr	-10.1296
rozgar	-10.1296
aql	-10.1297
karwan	-10.1297
▁waise	-10.1307
▁Thikan	-10.1326
▁khil	-10.1335
▁hansa	-10.1353
▁laDi	-10.1365
▁bik	-10.1367
▁ky	-10.1398
▁sambhaale	-10.1415
▁nit	-10.1424
▁aariz	-10.1427
▁sunsan	-10.1429
▁zarurat	-10.143
▁tawajjoh	-10.1432
▁zehn	-10.1432
arz	-10.1434
▁tasalli	-10.1437
▁mol	-10.1439
▁rauzan	-10.1441
▁auqat	-10.1446
tu	-10.1447
▁lashkar	-10.1452
▁bandagi	-10.1454
▁chaaragar	-10.1455
▁aahaT	-10.1457
▁asl	-10.1458
▁tabir	-10.146
▁mazhab	-10.1461
▁qafile	-10.1466
mand	-10.1469
fishan	-10.1478
▁balaen	-10.1488
▁talluq	-10.1494
▁azal	-10.15
lon	-10.1508
▁DhunDh	-10.1515
▁paun	-10.153
▁bewafai	-10.1532
▁aadam	-10.1533
▁parwa	-10.1549
▁udasi	-10.155
▁paimane	-10.1554
▁nim	-10.1562
▁bedar	-10.1568
▁inhi	-10.1569
▁amal	-10.1576
mizaj	-10.1588
▁jalta	-10.1589
karan	-10.1632
▁aazma	-10.1644
safa	-10.1649
iqbaal	-10.1654
murad	-10.1664
bulbul	-10.1664
hisab	-10.1665
shaeri	-10.1666
kafir	-10.1671
▁KHiram	-10.1672
sair	-10.1672
sabr	-10.1683
shabab	-10.1686
▁moD	-10.17
▁chhat	-10.1718
▁thoD	-10.172
▁sambhaal	-10.1721
▁aaTh	-10.1724
▁Dali	-10.1745
▁saja	-10.1746
▁bo	-10.1747
haar	-10.1752
zahir	-10.1757
ranj	-10.1761
▁pate	-10.1769
▁chamka	-10.1791
▁makin	-10.1791
▁dhul	-10.1792
▁zoaf	-10.1794
▁saik	-10.1794
▁safed	-10.1795
▁uDt	-10.1796
▁dhaDak	-10.1799
▁phenk	-10.1803
taqsir	-10.1807
wi	-10.1811
▁milega	-10.1816
▁mariz	-10.1821
▁muflis	-10.1823
▁gin	-10.1835
▁mulk	-10.1837
▁taskin	-10.1837
▁tishnagi	-10.1838
guzar	-10.1839
▁shafaq	-10.1842
▁ata	-10.1847
▁libas	-10.1852
wash	-10.1855
▁mujhko	-10.186
▁yarab	-10.1867
▁kahi	-10.1872
▁ahbab	-10.1872
▁tajalli	-10.1872
▁darwaze	-10.1876
▁paikar	-10.1876
▁pine	-10.1877
▁joban	-10.1882
▁lagan	-10.1892
▁saat	-10.1907
▁ishaare	-10.191
▁dosh	-10.1917
▁parwaz	-10.1918
▁sarak	-10.1936
fa	-10.1954
▁panja	-10.1957
▁mahrum	-10.1958
▁kuch	-10.1958
gahan	-10.1965
du	-10.1981
yun	-10.2039
ushshaq	-10.2046
▁aashnai	-10.2046
ijad	-10.2047
muddaa	-10.2048
matlab	-10.2049
rahguzar	-10.2051
qatl	-10.2052
hunar	-10.2052
▁mina	-10.2054
KHatir	-10.2056
▁naKHun	-10.2065
▁kasrat	-10.2086
tang	-10.2094
▁ghat	-10.21
▁bahal	-10.2102
▁laun	-10.2107
▁bi	-10.2135
y	-10.2135
▁aaun	-10.215
▁musht	-10.2158
▁mane	-10.2165
▁pukar	-10.2169
▁bech	-10.2173
▁nibah	-10.2174
▁ijazat	-10.2175
▁ashaar	-10.2175
lahza	-10.2176
▁farsh	-10.2179
▁khaal	-10.2181
▁jurat	-10.2184
▁sharh	-10.2185
▁KHilaf	-10.219
▁pasheman	-10.2193
▁kashish	-10.2196
▁gumbad	-10.2196
▁baadshah	-10.2206
▁saqiya	-10.2207
▁mahr	-10.2208
▁mubtala	-10.2209
▁mahmil	-10.2211
▁rawish	-10.2219
kab	-10.2222
▁fusun	-10.2224
▁sawab	-10.2225
▁dilruba	-10.2236
▁ruka	-10.2237
▁rahzan	-10.2255
▁bank	-10.2257
▁taKHt	-10.2257
▁choT	-10.2269
▁nashat	-10.2274
▁kakul	-10.2277
▁hamrah	-10.2305
hun	-10.2315
▁KHaksar	-10.2321
▁dauD	-10.2321
ron	-10.2322
▁haif	-10.2329
▁shikasta	-10.2344
▁hawaen	-10.2359
▁kabab	-10.2359
▁rasai	-10.2368
ajab	-10.2374
tamam	-10.2376
▁aaKHiri	-10.2378
garm	-10.2384
▁karni	-10.2397
nawaz	-10.2405
saya	-10.2406
▁piya	-10.242
▁tai	-10.2428
jis	-10.2444
naghma	-10.2448
naqsh	-10.2449
tujh	-10.2449
hairan	-10.2452
▁pahunchi	-10.2453
adab	-10.2458
kun	-10.246
▁kiran	-10.2461
▁paT	-10.2467
rafta	-10.2467
dair	-10.2469
tanhai	-10.2469
▁chhati	-10.2509
▁chaaron	-10.254
▁bhule	-10.2552
▁mohr	-10.2558
▁numud	-10.2566
▁saj	-10.2567
▁tohmat	-10.2572
▁agl	-10.2575
▁qarz	-10.2576
▁ret	-10.2581
▁azm	-10.2581
▁qurb	-10.2583
▁turfa	-10.2584
▁ufuq	-10.2589
▁khoya	-10.2592
▁dekhiyo	-10.2595
▁shohrat	-10.2596
▁jallad	-10.2599
▁KHalish	-10.2605
▁fitne	-10.2606
▁paikan	-10.2608
▁faqr	-10.261
▁nukta	-10.2613
▁sumbul	-10.2615
rana	-10.2616
▁KHala	-10.2622
▁surur	-10.2626
▁dhan	-10.2631
▁shumar	-10.2645
▁rahmat	-10.2656
tawani	-10.2675
ruba	-10.2676
▁humse	-10.2684
▁nazara	-10.2684
▁rahenge	-10.2684
▁rahin	-10.2694
▁jabr	-10.2694
yas	-10.2696
▁ijad	-10.2711
▁phans	-10.2728
▁patta	-10.2736
▁nadim	-10.2745
▁sarab	-10.2754
▁jhamak	-10.2799
kalam	-10.2803
▁patt	-10.2832
▁faiz	-10.2847
asrar	-10.2859
▁chalan	-10.2862
ummid	-10.2865
hairat	-10.2865
zanjir	-10.2865
raushan	-10.2865
sahil	-10.2866
sharar	-10.2866
nazuk	-10.2868
rau	-10.2875
shabnam	-10.2877
▁rast	-10.2889
▁talKH	-10.289
▁parwane	-10.2891
bedar	-10.2896
nge	-10.2906
▁dahr	-10.2909
▁marta	-10.292
▁andheri	-10.2921
fan	-10.2922
▁shaer	-10.293
▁pasban	-10.2936
▁Thik	-10.2938
▁chaDh	-10.2945
▁re	-10.2947
▁Thokar	-10.2981
▁murjha	-10.2992
▁shiddat	-10.2992
▁iKHlas	-10.2992
▁botal	-10.2993
▁kinara	-10.2994
waja	-10.2997
▁tabib	-10.2997
▁samna	-10.2998
▁KHalal	-10.3001
▁tirgi	-10.3015
▁andesha	-10.3017
▁rup	-10.3019
afat	-10.3026
▁tahrir	-10.3028
▁chalti	-10.3039
▁lek	-10.305
▁jazba	-10.3051
▁naf	-10.3058
▁uski	-10.3064
▁zi	-10.3065
▁dekhenge	-10.307
▁uTThe	-10.3077
▁saudai	-10.308
▁chheDa	-10.3084
▁mayus	-10.3086
▁murawwat	-10.309
▁rihai	-10.3102
bandi	-10.3102
▁samjhen	-10.3112
aman	-10.3139
▁gile	-10.3153
bara	-10.3155
▁uDte	-10.3156
▁chalta	-10.3162
uk	-10.3172
shah	-10.319
▁aasar	-10.3203
▁baDhe	-10.3215
▁Duba	-10.322
umid	-10.3227
shoKH	-10.3228
▁zaman	-10.3229
aat	-10.323
farda	-10.3238
▁TuTi	-10.3243
ib	-10.3248
▁sona	-10.3251
tum	-10.3255
▁biTha	-10.3287
▁badli	-10.3298
bayaban	-10.3299
jannat	-10.33
mauj	-10.33
shamshir	-10.3301
phir	-10.3302
KHamosh	-10.3303
shaKH	-10.3303
qalam	-10.3303
gulistan	-10.3304
gulsitan	-10.3307
kamar	-10.3307
za	-10.3308
kaun	-10.3309
ashiqi	-10.3319
wada	-10.332
▁sunai	-10.3325
lu	-10.3327
mazar	-10.3338
▁tun	-10.334
go	-10.3346
▁ujD	-10.3357
▁laDt	-10.3382
▁bahla	-10.3416
▁chhuDa	-10.3424
▁ungliy	-10.3425
▁bismillah	-10.3427
▁hisse	-10.3427
sikandar	-10.3427
▁bhanwar	-10.3428
▁daraKHt	-10.3428
▁arsa	-10.3429
▁darpesh	-10.343
▁rakkhi	-10.343
▁sehn	-10.3431
▁pahan	-10.3431
▁aangan	-10.3433
▁hunuz	-10.3433
▁paDha	-10.3435
▁ujala	-10.3436
▁naqd	-10.3437
▁nashtar	-10.3444
▁qusur	-10.3447
▁tahzib	-10.3447
▁partaw	-10.3448
▁sharmsar	-10.3449
▁aabla	-10.3449
▁rakhiye	-10.345
▁kahunga	-10.3451
▁pyari	-10.3456
▁qasd	-10.346
▁jalaya	-10.3462
▁buniyaad	-10.347
raz	-10.3473
▁waisi	-10.3473
▁gam	-10.3475
▁qaul	-10.3494
▁lan	-10.3511
▁barsa	-10.3513
▁lagaya	-10.3514
▁purani	-10.3536
utar	-10.3539
▁qamat	-10.354
▁dan	-10.3542
▁u	-10.3546
▁hama	-10.3569
▁ushshaq	-10.3575
▁mas	-10.3591
▁leti	-10.3603
sanj	-10.3605
▁uThana	-10.3607
▁chori	-10.364
▁shaeri	-10.3657
▁siyahi	-10.3661
chin	-10.3678
▁piri	-10.3693
▁duri	-10.3701
▁mazar	-10.3708
▁kanon	-10.3714
▁basa	-10.3716
▁shoale	-10.3731
maqsud	-10.3749
dimagh	-10.3754
izhaar	-10.3754
kucha	-10.3756
laila	-10.3761
bedad	-10.3764
surat	-10.3765
dostan	-10.3769
▁zad	-10.3771
sard	-10.3787
▁sata	-10.3801
▁dew	-10.3802
▁pita	-10.3808
dud	-10.3823
▁KHatt	-10.3828
ain	-10.3845
▁safai	-10.3856
▁kusht	-10.3861
▁darich	-10.3877
saf	-10.3877
▁lamh	-10.3879
▁tauq	-10.3879
▁masruf	-10.3882
▁simaT	-10.3882
▁pahaD	-10.3882
▁waraq	-10.3882
▁khet	-10.3883
▁ghir	-10.3884
▁pagal	-10.3884
▁jugnu	-10.3885
▁zinhaar	-10.3885
▁kapD	-10.3885
ho	-10.3888
▁charcha	-10.3889
▁mehrab	-10.3889
basar	-10.3893
▁bhali	-10.3893
▁bul	-10.3896
▁mangun	-10.3896
▁dushnam	-10.3897
▁gal	-10.3898
▁utn	-10.3899
far	-10.39
▁gurez	-10.3902
▁takrar	-10.3903
▁najat	-10.3903
kuhan	-10.3903
▁qabu	-10.3905
▁nin	-10.3908
▁dawat	-10.3909
▁jhaD	-10.3912
▁ana	-10.3922
▁bheja	-10.3931
▁tapish	-10.3939
▁khate	-10.3941
▁jagta	-10.3945
rez	-10.395
▁jeb	-10.3951
▁girta	-10.3955
▁baiThna	-10.396
▁zulmat	-10.3964
▁imkan	-10.397
gashta	-10.3979
▁rahnuma	-10.3983
yaad	-10.3993
▁sai	-10.4001
▁tul	-10.4005
▁nazzara	-10.4009
▁mir	-10.4012
▁charaghan	-10.4014
▁khincha	-10.4017
naza	-10.4027
▁hansne	-10.4027
▁uf	-10.4037
nai	-10.4037
▁burai	-10.404
▁shadi	-10.404
▁rawani	-10.405
▁bedad	-10.406
▁talKHi	-10.4065
▁sila	-10.4068
han	-10.4073
▁andaza	-10.4093
▁we	-10.4113
▁dekhin	-10.4115
▁yaran	-10.4123
sai	-10.4124
barg	-10.4131
Thikana	-10.4134
▁turra	-10.4155
ashiyan	-10.4173
rahat	-10.418
▁badalt	-10.4183
▁laDa	-10.4186
▁toDa	-10.4188
betab	-10.4189
KHur	-10.419
adu	-10.4192
▁DhunDt	-10.4202
ap	-10.4213
▁uThai	-10.4213
wajud	-10.4221
KHurshid	-10.423
iztirab	-10.423
mashuq	-10.423
faza	-10.4231
parwaz	-10.4231
mushkil	-10.4231
KHushk	-10.4236
▁khae	-10.4255
tere	-10.4256
baala	-10.4269
fishani	-10.4281
dur	-10.4284
▁zaKHmi	-10.4289
▁KHarabi	-10.4294
karda	-10.43
▁an	-10.4323
▁parind	-10.4326
juz	-10.433
iyega	-10.4333
nak	-10.4349
▁aashufta	-10.4354
▁ulajh	-10.4357
▁sahaar	-10.4357
▁mazkur	-10.4358
▁mauquf	-10.4358
▁lakir	-10.4358
▁rafiq	-10.4358
▁farishto	-10.4358
▁aadab	-10.4359
▁bigDi	-10.436
▁chadar	-10.4362
▁pamal	-10.4364
▁inqalab	-10.4374
▁hakim	-10.4374
▁chashma	-10.4375
▁quran	-10.4375
▁gird	-10.438
▁maghrur	-10.438
▁mashq	-10.438
▁chhan	-10.4384
▁bahisht	-10.4387
▁farogh	-10.4387
▁baghal	-10.4387
▁bisat	-10.4388
▁pukara	-10.4392
shir	-10.4392
▁nasha	-10.4395
▁nihaal	-10.4402
▁began	-10.4404
▁koshish	-10.4406
▁mango	-10.4406
▁sust	-10.4409
▁iltifat	-10.4412
▁chamakt	-10.4423
▁nil	-10.4426
▁musal	-10.4448
▁roun	-10.4456
▁maraz	-10.4463
sab	-10.4472
mil	-10.449
▁shak	-10.4507
▁sipar	-10.4525
Ti	-10.4526
▁karegi	-10.4532
▁tarash	-10.4554
▁kafan	-10.4557
▁yakta	-10.4564
▁TukD	-10.457
▁sud	-10.4597
bashar	-10.46
▁uThata	-10.4613
jub	-10.462
kis	-10.4622
▁haTa	-10.4623
fat	-10.4629
▁chur	-10.4646
▁gharq	-10.4647
sari	-10.465
baKHsh	-10.4651
▁masha	-10.4672
▁hal	-10.4682
▁musa	-10.4689
gosh	-10.4692
haul	-10.4694
kushta	-10.4713
kausar	-10.4717
parwa	-10.4718
dawa	-10.4719
qamat	-10.4727
nazzara	-10.4728
nargis	-10.473
gardun	-10.4731
aram	-10.4757
beja	-10.4758
insan	-10.4761
teri	-10.4781
nosh	-10.4786
▁daba	-10.4795
▁kui	-10.4801
▁khult	-10.4817
▁lau	-10.4838
▁ulT	-10.484
▁bhiD	-10.4848
▁bij	-10.4857
▁dahshat	-10.4858
▁sameT	-10.4858
▁aadat	-10.4859
▁farmaya	-10.486
▁aanchal	-10.4861
▁KHidmat	-10.4861
▁shikwe	-10.4861
▁shal	-10.4862
▁firdaus	-10.4868
▁ishaarat	-10.4871
▁jhonka	-10.4872
▁tariq	-10.4874
▁palken	-10.4874
▁pusht	-10.4874
▁karishma	-10.4875
▁bichha	-10.4876
▁misra	-10.488
▁kashmakash	-10.4881
▁ranjish	-10.4883
▁afsurda	-10.489
▁safha	-10.4893
▁bait	-10.4895
▁pursish	-10.4895
▁zawal	-10.4895
▁shifa	-10.4895
▁naza	-10.49
▁taqrir	-10.4908
pak	-10.4909
▁mangta	-10.4916
▁bekasi	-10.4919
▁intiKHab	-10.4921
▁karamat	-10.4923
▁zarf	-10.4924
▁ThanDa	-10.4925
wenge	-10.4926
ghar	-10.4929
tah	-10.4932
▁marham	-10.4932
▁dekhega	-10.4935
▁ghurbat	-10.4935
iyyat	-10.4946
▁afsane	-10.4948
De	-10.495
▁jaras	-10.495
▁virana	-10.4953
parasti	-10.4956
▁dandan	-10.4957
▁muD	-10.496
▁iza	-10.4962
▁manzilen	-10.4969
▁shitab	-10.4969
▁ishrat	-10.4975
▁degi	-10.4976
▁hadis	-10.4988
▁rangat	-10.4991
dana	-10.4991
▁jit	-10.5007
▁KHwah	-10.5008
▁darbar	-10.5023
im	-10.5027
▁muk	-10.5029
▁guzarna	-10.5045
▁jhank	-10.5045
▁kamand	-10.5049
▁phail	-10.508
qa	-10.5101
ad	-10.5102
▁aahen	-10.5105
▁hotin	-10.5111
kah	-10.5146
▁tangi	-10.5157
▁amir	-10.5162
lam	-10.5165
gudaz	-10.5181
▁nikalne	-10.5182
mushtaq	-10.5191
baat	-10.5193
lal	-10.5204
iq	-10.5224
paiham	-10.5256
nashat	-10.5256
guhar	-10.5256
charKH	-10.5256
zabt	-10.5257
pairahan	-10.5257
taswir	-10.5257
jawab	-10.5257
yaqin	-10.5257
KHum	-10.526
ruswai	-10.5274
▁paen	-10.5275
KHunin	-10.528
▁niyaz	-10.5281
▁KHa	-10.5285
haalat	-10.5287
awwal	-10.5289
rasm	-10.5301
▁kas	-10.5312
▁dildar	-10.5326
don	-10.5334
ahd	-10.5366
koi	-10.5381
▁tabah	-10.5382
▁imam	-10.5383
▁maqdur	-10.5384
▁utri	-10.5384
▁bhes	-10.5384
▁dalil	-10.5385
▁mauqa	-10.5388
▁ewaz	-10.5389
▁labrez	-10.5391
▁parhez	-10.5395
▁tarif	-10.5396
▁macha	-10.5396
▁saunp	-10.5398
nar	-10.54
▁mutlaq	-10.5402
▁suluk	-10.5402
▁bataun	-10.5405
nashad	-10.5405
▁rutba	-10.5407
▁bandht	-10.5411
▁bechta	-10.5416
▁iltija	-10.5416
▁nasheman	-10.5417
▁gala	-10.5421
▁diwangi	-10.5423
▁maslahat	-10.5423
▁lagai	-10.5423
figar	-10.5424
▁asbab	-10.5437
▁jale	-10.5438
▁aagah	-10.5442
▁hirs	-10.5445
▁piye	-10.545
▁hajat	-10.5459
▁aaiye	-10.5462
jah	-10.5463
▁butan	-10.5465
▁unwan	-10.5472
kas	-10.5482
sani	-10.5487
▁guftar	-10.5488
▁rula	-10.5495
▁uThate	-10.5496
▁sim	-10.5506
▁nich	-10.5517
shad	-10.5524
▁sawari	-10.5527
▁toDe	-10.5536
▁naghme	-10.5537
jal	-10.5547
▁aman	-10.5547
▁manga	-10.5554
taban	-10.5557
▁jalan	-10.5582
▁socht	-10.5583
koh	-10.5587
▁bud	-10.5589
sha	-10.5592
▁Dhaal	-10.56
kanan	-10.5626
bab	-10.5647
niyazi	-10.5656
▁utre	-10.5669
yab	-10.5704
▁tana	-10.5719
dekh	-10.5721
▁zari	-10.5725
▁ubhar	-10.5733
afshan	-10.5744
nakaam	-10.5751
pir	-10.5752
nigahi	-10.5753
▁ik	-10.5769
▁uchhal	-10.5788
KHanda	-10.5795
▁shane	-10.5799
Ta	-10.5807
ishrat	-10.581
murawwat	-10.581
qamar	-10.5811
mulaqat	-10.5812
tasawwur	-10.5813
gesu	-10.5814
giraftar	-10.5815
jaur	-10.5815
buland	-10.5816
▁riha	-10.5816
shisha	-10.582
sifat	-10.5821
▁betabi	-10.5821
▁aadh	-10.5824
▁uljha	-10.5825
dosh	-10.5825
iman	-10.5832
rawa	-10.5835
▁dars	-10.5838
▁h	-10.5845
KHubi	-10.5851
▁sunaun	-10.5868
kaba	-10.5874
baqa	-10.5876
▁bikharn	-10.5881
fani	-10.5888
shararat	-10.5916
▁jaani	-10.5917
nadan	-10.5924
▁puchhun	-10.5925
garmi	-10.593
▁sil	-10.5931
shikasta	-10.5935
▁aazurda	-10.5937
ahista	-10.5938
▁c	-10.5939
basta	-10.5939
▁munkir	-10.594
▁irshad	-10.594
▁poshak	-10.594
▁bhed	-10.594
▁mear	-10.5941
▁lagawaT	-10.5941
▁majal	-10.5942
▁chiKH	-10.5944
▁lije	-10.5944
▁wun	-10.5946
▁sarmaya	-10.595
▁jiyun	-10.5952
▁gulabi	-10.5953
▁joD	-10.5953
▁adawat	-10.5954
▁chuTki	-10.5956
▁dhaDkan	-10.5956
▁sharbat	-10.5958
▁sati	-10.5963
▁marka	-10.5967
▁bigDe	-10.5967
mushkin	-10.5969
rawi	-10.5973
▁fauj	-10.5973
▁qasr	-10.5974
▁reza	-10.5976
▁kaamyab	-10.598
▁ganj	-10.5988
▁nazren	-10.599
▁shoKHiyan	-10.5993
▁yaadgar	-10.5993
▁KHwahishen	-10.6001
rangi	-10.6002
▁daim	-10.601
▁chhuri	-10.6016
▁lega	-10.6024
▁aagahi	-10.6028
▁duaen	-10.6031
▁KH	-10.604
▁ghamza	-10.6047
▁aflak	-10.6049
▁soya	-10.6055
▁qamar	-10.6072
▁sifat	-10.608
▁paiham	-10.6083
▁KHasta	-10.6091
josh	-10.6105
▁gardun	-10.6109
▁gahrai	-10.6115
▁sarkar	-10.6122
▁laT	-10.6135
▁batao	-10.6173
▁khai	-10.6184
▁tari	-10.6204
▁kalim	-10.6212
▁baiTho	-10.6219
wari	-10.6241
▁halqe	-10.6245
▁mom	-10.6261
▁late	-10.6269
mak	-10.6278
angur	-10.6296
▁rishte	-10.6322
▁mis	-10.6329
▁nikalo	-10.6332
shak	-10.6335
azma	-10.6336
son	-10.634
▁jalat	-10.635
▁gunj	-10.636
waz	-10.6366
▁hil	-10.6368
▁baj	-10.6374
sahba	-10.6395
tajalli	-10.6399
wajh	-10.6399
takalluf	-10.64
aghyar	-10.64
sohbat	-10.64
ahbab	-10.64
tauba	-10.64
kanar	-10.6402
ghuncha	-10.6403
barbaad	-10.6411
bahr	-10.6411
▁gahr	-10.6416
daraaz	-10.6417
gardan	-10.6418
sozan	-10.6419
gulu	-10.6421
jism	-10.6425
subu	-10.644
▁bekal	-10.6447
awaz	-10.6455
isyan	-10.6455
▁hairani	-10.6462
kasi	-10.6469
▁dikhat	-10.6469
▁Than	-10.6487
▁aashkar	-10.6495
▁chir	-10.6503
▁humne	-10.6508
masti	-10.6514
▁chamke	-10.6527
▁chamki	-10.6528
▁aKHbar	-10.6528
▁beach	-10.6528
▁numayan	-10.6528
▁ubal	-10.6528
▁aashob	-10.6528
▁aazmaish	-10.6528
▁aziyyat	-10.6529
▁duhai	-10.653
▁nusKHa	-10.653
▁tund	-10.6531
▁jhagDa	-10.6532
▁nuqsan	-10.6532
▁jazbaat	-10.6534
▁muddai	-10.6539
▁kahiyo	-10.6539
▁oDh	-10.6539
▁izzat	-10.654
▁muzhda	-10.654
▁mund	-10.6541
▁mudawa	-10.6543
asa	-10.6544
▁baiThiye	-10.6544
▁shaghl	-10.6548
▁manus	-10.6548
▁kisht	-10.6549
azal	-10.6557
▁chaliye	-10.6565
▁rahiyo	-10.6566
▁talabgar	-10.6568
▁jaoge	-10.6573
▁baiTht	-10.6573
▁taD	-10.6576
▁andhera	-10.6578
▁zabh	-10.658
▁raqam	-10.658
▁paDte	-10.6581
▁hikayat	-10.6583
aghosh	-10.6588
▁mujhse	-10.659
▁jila	-10.659
▁hazir	-10.6604
▁akele	-10.6605
▁putl	-10.6605
▁nadamat	-10.6612
▁gha	-10.6619
▁ijz	-10.662
▁hilal	-10.6621
▁simab	-10.6622
gulfam	-10.6631
▁bachch	-10.6636
apne	-10.6639
▁kaliyan	-10.6643
rasan	-10.6644
shorida	-10.6648
zabani	-10.6652
▁nishana	-10.6655
▁ruki	-10.6658
▁bure	-10.6678
sam	-10.6691
▁jaanun	-10.6695
▁math	-10.671
▁rog	-10.671
▁rakhen	-10.6714
▁sur	-10.6716
▁saKHti	-10.6725
▁karoge	-10.6726
▁rahbar	-10.6739
▁ch	-10.6742
aj	-10.6745
fi	-10.6746
▁pighal	-10.6751
▁pukart	-10.6754
dildar	-10.6758
hinai	-10.6777
▁tap	-10.6787
▁nikalna	-10.6788
▁bikhre	-10.6792
▁mangi	-10.6821
▁lale	-10.6835
▁fard	-10.6837
▁pis	-10.6837
baran	-10.6838
wat	-10.6841
▁chaln	-10.6849
ras	-10.6853
▁miTe	-10.6854
zari	-10.6863
▁id	-10.6867
▁tarsa	-10.6885
▁likht	-10.6898
▁zabani	-10.6903
▁uDane	-10.6903
▁jhuki	-10.691
ge	-10.6914
viran	-10.6926
▁khilt	-10.6928
afshani	-10.6945
▁tin	-10.6955
▁pat	-10.6955
sud	-10.6962
▁Tapak	-10.6973
▁das	-10.6991
▁aha	-10.6999
ziyan	-10.7008
▁uDi	-10.7014
daulat	-10.7016
▁uDat	-10.7016
shahid	-10.7019
qaza	-10.7022
kaif	-10.7023
fitrat	-10.7025
talluq	-10.7025
KHizr	-10.7025
qudrat	-10.7025
lazzat	-10.7026
ghubar	-10.7026
laKHt	-10.7026
haqiqat	-10.7027
kabhi	-10.7029
paikar	-10.7031
murgh	-10.7032
KHumar	-10.7035
qais	-10.7038
parwana	-10.7039
▁chau	-10.705
tir	-10.7069
▁chahun	-10.7073
▁gire	-10.7076
▁gawah	-10.7081
▁lipTe	-10.7085
▁s	-10.7085
bahaaran	-10.7086
▁da	-10.7109
shahidan	-10.7121
hr	-10.7121
▁kaheng	-10.7122
▁uDan	-10.7126
▁KHusha	-10.7127
istan	-10.7128
▁bechain	-10.7145
▁khon	-10.7146
▁satat	-10.7146
▁til	-10.715
▁chingari	-10.7151
faramosh	-10.7153
▁mohlat	-10.7153
▁inhen	-10.7153
▁KHitab	-10.7153
▁iksir	-10.7153
▁mukhDe	-10.7153
▁tawaf	-10.7153
▁jyun	-10.7153
▁kaifiyat	-10.7153
▁qail	-10.7153
▁kimiya	-10.7153
▁sadme	-10.7153
▁alif	-10.7154
▁chakkar	-10.7154
angez	-10.7154
▁dhoke	-10.7156
▁ungli	-10.7156
▁wapas	-10.7157
▁wabaal	-10.7157
▁ehtiyat	-10.7158
▁buzurg	-10.7158
▁ustuKHan	-10.7158
▁Thahrega	-10.7159
▁lunga	-10.7159
pi	-10.716
▁safina	-10.716
▁KHwahan	-10.7161
▁aajiz	-10.7162
▁machal	-10.7163
▁toDiye	-10.7164
▁lagaw	-10.7165
▁taufiq	-10.7166
▁qumri	-10.7166
▁marhala	-10.717
▁hoshiyar	-10.7174
▁mutrib	-10.7174
▁nabz	-10.7174
▁shaida	-10.7177
▁qata	-10.718
▁kirdar	-10.7184
▁tesha	-10.7184
gal	-10.7188
▁thamna	-10.7193
▁jaengi	-10.7197
▁zamzama	-10.7199
▁mushk	-10.7202
▁KHudaya	-10.7205
▁kaif	-10.721
▁daraaz	-10.7214
▁DhunDa	-10.7221
▁barahna	-10.7227
ruh	-10.723
▁purana	-10.723
▁zuleKHa	-10.7234
▁nikala	-10.724
▁rukta	-10.7241
▁mahal	-10.7244
ud	-10.7247
▁lat	-10.7247
▁fal	-10.7248
▁KHuld	-10.7251
▁sulagt	-10.7258
▁sarasar	-10.7259
▁bolen	-10.7262
▁sajde	-10.7266
▁jhuTa	-10.728
▁kajal	-10.7281
▁usko	-10.7285
▁azan	-10.7286
▁karunga	-10.7299
▁Dubt	-10.7299
hazar	-10.7311
▁chehr	-10.7312
▁bekar	-10.7318
ash	-10.7336
▁shadman	-10.7351
▁deni	-10.7355
tabar	-10.7363
▁zah	-10.7378
▁dabi	-10.7397
▁nafa	-10.7401
▁batla	-10.7404
▁bhig	-10.7411
▁taras	-10.7436
▁parwan	-10.7451
▁beja	-10.7471
arsh	-10.7498
▁sahm	-10.7498
rahman	-10.7522
▁bang	-10.7534
▁tahi	-10.7535
▁guzara	-10.754
▁milen	-10.7542
▁naw	-10.7553
▁sadiy	-10.7563
▁chhuTa	-10.7564
tabi	-10.7569
▁pit	-10.758
ik	-10.7597
fahm	-10.7599
▁badaln	-10.7602
sharm	-10.7651
▁kaTa	-10.7671
▁shitabi	-10.7671
▁laen	-10.7673
KHashak	-10.7679
shiar	-10.768
paiman	-10.7684
shahadat	-10.7685
reKHta	-10.7688
malamat	-10.7688
aflak	-10.7689
guftar	-10.7691
mizha	-10.7691
masiha	-10.7691
himmat	-10.7692
▁bina	-10.7692
fariyaad	-10.7692
raqib	-10.7693
sahib	-10.7693
KHalq	-10.7693
imkan	-10.7693
jawedan	-10.7716
KHatar	-10.7718
anjam	-10.772
nihayat	-10.7726
sher	-10.7728
▁tarik	-10.773
aq	-10.7735
raza	-10.7737
dilbar	-10.7749
▁bari	-10.7751
▁wabasta	-10.7757
▁chaunk	-10.7789
▁KHajil	-10.7819
▁karishme	-10.7819
▁muTThi	-10.7819
▁Dher	-10.7819
▁Tapke	-10.782
▁izn	-10.782
▁farishta	-10.782
▁jashn	-10.782
▁ghunT	-10.782
▁marzi	-10.782
▁kaifiyyat	-10.782
▁tariKH	-10.782
▁niyyat	-10.782
▁insha	-10.782
▁halak	-10.782
▁sulh	-10.7821
▁aaraish	-10.7821
▁mabud	-10.7821
▁angDai	-10.7822
▁bhale	-10.7822
▁aaKHirash	-10.7824
▁laraz	-10.7826
qalaq	-10.7826
▁chhuDaya	-10.7826
▁rudad	-10.7829
▁khaDi	-10.7829
▁afw	-10.783
▁piro	-10.7833
▁zuhur	-10.7833
▁wajd	-10.7833
▁masum	-10.7834
chal	-10.7834
▁harjai	-10.7834
▁sarsabz	-10.7834
▁zillat	-10.7835
▁sadaf	-10.7837
▁dant	-10.784
▁uDe	-10.784
▁talw	-10.7841
▁saffak	-10.7842
▁lahja	-10.7842
▁ustuKHwan	-10.7842
▁waqi	-10.7843
▁sawan	-10.7845
▁niklega	-10.785
▁sota	-10.785
▁maktab	-10.7851
▁masafat	-10.7852
▁baraat	-10.7854
▁rifaqat	-10.786
▁matla	-10.7861
▁tamashai	-10.7862
▁shash	-10.7862
▁sajan	-10.7864
▁wais	-10.7869
▁wuzu	-10.787
▁roti	-10.7873
▁barhaman	-10.7874
▁mudam	-10.7875
▁bikhra	-10.7876
▁zarar	-10.7878
▁dekhoge	-10.788
▁pahron	-10.7882
▁nayan	-10.7885
▁chhoTi	-10.7885
▁shabistan	-10.7891
▁kulah	-10.7894
▁KHarid	-10.7904
▁likhn	-10.7912
ish	-10.7915
▁taDpa	-10.7915
▁shuur	-10.7915
▁anjum	-10.7927
▁KHwar	-10.7931
jaza	-10.7956
▁misr	-10.7957
▁kashan	-10.796
▁bandhi	-10.7962
▁j	-10.7967
▁arba	-10.7967
▁puchhen	-10.7988
▁jiye	-10.7993
nisar	-10.7999
▁gher	-10.8001
▁girani	-10.8019
▁shoal	-10.802
▁chhai	-10.8025
▁kijo	-10.8025
▁tison	-10.803
▁murda	-10.8046
▁ujale	-10.8048
▁aazadi	-10.8056
▁ruke	-10.8068
▁faro	-10.8069
sarw	-10.8073
▁digar	-10.8091
▁mahin	-10.8091
▁dukhan	-10.8108
▁suraten	-10.8109
taba	-10.8185
abad	-10.8189
▁bhai	-10.8195
▁nibha	-10.8208
▁mash	-10.8219
▁Dalun	-10.8219
▁gudaz	-10.826
▁guzarn	-10.826
▁ruThe	-10.8274
parwar	-10.8295
▁sag	-10.8306
▁turk	-10.8307
▁bulandi	-10.8314
▁KHazane	-10.8322
tak	-10.8326
agar	-10.8327
kul	-10.8328
mehrban	-10.8331
▁bataen	-10.8346
▁ha	-10.8352
▁ayyar	-10.8361
sabz	-10.8363
gasht	-10.8364
▁raazi	-10.8366
zaqan	-10.8395
muztar	-10.8398
taslim	-10.8401
afsos	-10.8406
taqdir	-10.8406
guftugu	-10.8406
sayyaad	-10.8407
farhad	-10.8407
sawal	-10.8407
lekin	-10.8408
wahm	-10.8408
mere	-10.8408
▁kaTt	-10.841
habab	-10.8412
samar	-10.8414
misal	-10.8414
▁jhaDi	-10.8417
rashk	-10.8419
taqat	-10.8427
ilahi	-10.8434
shor	-10.844
aaj	-10.8441
tark	-10.8442
shud	-10.8447
▁nazan	-10.8456
taz	-10.8465
▁sam	-10.8476
gil	-10.8478
tez	-10.8481
bash	-10.8489
▁rakhun	-10.8498
▁phaD	-10.8498
piri	-10.8501
▁giry	-10.8502
▁uchhaal	-10.8503
▁niral	-10.8504
▁dhaDka	-10.8524
▁phula	-10.8524
▁Thukra	-10.8526
shoKHi	-10.8528
gusar	-10.8532
▁bikher	-10.8534
▁jagmaga	-10.8534
▁sujhi	-10.8534
▁uTThi	-10.8534
▁hifz	-10.8534
▁kashakash	-10.8534
▁qahqah	-10.8534
▁barmala	-10.8534
▁angiya	-10.8534
▁ziyarat	-10.8534
▁wallah	-10.8535
▁kachch	-10.8536
▁qaem	-10.8536
▁saltanat	-10.8539
▁munasib	-10.8541
▁mazaq	-10.8542
▁madad	-10.8542
▁mun	-10.8542
▁bajin	-10.8545
kushi	-10.8547
▁ghaarat	-10.8549
▁saliqa	-10.8551
▁dharti	-10.8555
▁martaba	-10.8557
▁nawazish	-10.8558
▁ziya	-10.8561
▁baKHsha	-10.8562
▁aawenge	-10.8562
▁bagula	-10.8562
anqa	-10.8567
▁faraghat	-10.857
▁paDhte	-10.8573
▁dewe	-10.8577
rag	-10.8578
▁mehnat	-10.8578
▁zinat	-10.858
▁khaya	-10.8582
▁uryan	-10.8583
▁nazm	-10.8585
▁kalisa	-10.8586
chang	-10.8586
▁ibaadat	-10.8588
atishin	-10.8592
▁kawish	-10.8598
▁mardum	-10.8598
▁KHarabaat	-10.8602
▁pahla	-10.8603
▁bastiy	-10.8603
▁KHirman	-10.8607
nama	-10.8609
adat	-10.8611
▁naubat	-10.8612
▁buDhap	-10.8612
▁qana	-10.8616
▁gawahi	-10.8618
▁kabk	-10.8619
▁jahannam	-10.8631
▁sahn	-10.8632
▁nasur	-10.8639
▁dhaar	-10.8642
▁barse	-10.8642
▁kanp	-10.8643
so	-10.8653
▁puri	-10.8656
▁pasbani	-10.8661
KHata	-10.8663
▁qisse	-10.8666
naward	-10.867
afiq	-10.8674
yaran	-10.8677
▁bebak	-10.8682
shumar	-10.8696
jar	-10.8697
karrar	-10.8701
eli	-10.8704
▁naqa	-10.8705
▁chhoT	-10.8713
▁murde	-10.872
aw	-10.873
▁kushada	-10.8731
▁pil	-10.8733
KHushi	-10.8747
c	-10.875
▁virani	-10.8751
KHwani	-10.8762
▁bak	-10.8771
▁nagin	-10.8784
▁DhunDht	-10.8785
▁cha	-10.8787
▁honTh	-10.8798
raw	-10.8801
▁murad	-10.8815
▁bagul	-10.8822
▁leT	-10.8827
▁madar	-10.8829
▁ran	-10.883
▁bedard	-10.8847
huma	-10.8854
▁paemal	-10.8856
shanasai	-10.8867
jaanana	-10.8874
▁pukare	-10.8875
▁bichhDe	-10.8888
▁besh	-10.8899
▁bande	-10.89
▁baKHsh	-10.8901
▁roen	-10.8967
khaT	-10.8984
▁zeb	-10.8993
▁virane	-10.8998
▁bhaTak	-10.901
▁baKHshe	-10.9017
▁pahchant	-10.9025
▁jaD	-10.9028
wal	-10.9048
▁dagha	-10.9069
isa	-10.9075
▁nikali	-10.9091
▁shadmani	-10.9095
uryan	-10.9117
▁puKHta	-10.9131
▁bachche	-10.9144
tuf	-10.9155
wega	-10.9159
zanaKHdan	-10.9162
bayani	-10.9164
anjum	-10.9165
▁tala	-10.9173
wahshi	-10.9174
minnat	-10.9175
ghaflat	-10.9175
jurm	-10.9175
ruKHsat	-10.9176
qismat	-10.9176
kaamil	-10.9177
surma	-10.9177
sahab	-10.9177
zahid	-10.9177
hasil	-10.9179
musal	-10.9179
fam	-10.918
rahmat	-10.9181
ghamza	-10.9183
tufan	-10.9183
kamal	-10.9185
dandan	-10.9187
charaghan	-10.919
zinda	-10.9192
nigaran	-10.9196
fasl	-10.9199
▁niche	-10.9215
▁batat	-10.9222
▁hushyar	-10.9226
gard	-10.9226
▁satae	-10.9237
▁za	-10.9257
nahin	-10.9265
▁lagata	-10.9269
farma	-10.9269
▁ghol	-10.927
raftagan	-10.9271
darun	-10.9273
▁lao	-10.9275
▁hausl	-10.9275
▁tamash	-10.9277
▁pahr	-10.9278
▁nashsh	-10.9278
▁silsil	-10.9281
alud	-10.9289
KHufta	-10.9302
afrin	-10.9302
mustaqil	-10.9303
▁bahrup	-10.9303
▁jhunjhla	-10.9303
▁maqbul	-10.9303
▁taraqqi	-10.9303
▁hasb	-10.9303
▁samjhun	-10.9303
▁sidhe	-10.9303
tamkin	-10.9303
▁daDhi	-10.9303
▁dopahar	-10.9303
▁hauz	-10.9303
▁marhaba	-10.9303
▁pahne	-10.9303
▁aasuda	-10.9303
▁nikhar	-10.9303
▁mahfuz	-10.9304
▁akaD	-10.9304
▁ThanDi	-10.9304
▁tewar	-10.9304
▁dastaras	-10.9304
idrak	-10.9305
timad	-10.9305
fagan	-10.9305
▁sidhi	-10.9305
▁aarif	-10.9305
▁shorish	-10.9306
▁majma	-10.9306
▁mansab	-10.9307
▁nasihat	-10.9307
▁madh	-10.9308
▁khultin	-10.9309
▁laghzish	-10.9309
▁ponchh	-10.9309
▁iKHtilat	-10.9309
▁tausan	-10.931
▁maal	-10.9313
▁dastak	-10.9314
▁rakhiyo	-10.9315
▁naqus	-10.932
▁farz	-10.9324
ahu	-10.9324
▁Thokaren	-10.9324
▁qurbat	-10.9326
or	-10.9329
▁tasbih	-10.933
▁qufl	-10.933
▁bim	-10.9332
saza	-10.9333
▁girdab	-10.9334
▁aawega	-10.9337
▁sarih	-10.9338
▁nuqta	-10.9338
▁mangte	-10.9338
▁kamre	-10.934
▁muztarib	-10.934
▁rakhi	-10.9341
▁boliye	-10.9342
▁inam	-10.9342
▁zamir	-10.9343
▁harim	-10.9343
▁jagte	-10.9345
▁milenge	-10.9349
mizan	-10.9357
rasai	-10.9357
▁bharam	-10.9358
▁yaksan	-10.9359
agahi	-10.9361
▁qalandar	-10.9362
▁sailab	-10.9368
▁yaksar	-10.9368
▁peshani	-10.937
nat	-10.9373
KHwari	-10.9374
wida	-10.9381
shuda	-10.9385
▁khaTak	-10.9385
qat	-10.9387
▁lipT	-10.9387
▁gurezan	-10.9394
KHurda	-10.9402
shan	-10.9407
▁KHayalat	-10.9412
ut	-10.9414
▁ambar	-10.9414
▁mastana	-10.9426
▁patte	-10.9431
▁unhi	-10.9437
sur	-10.9456
▁malamat	-10.9458
▁gat	-10.946
much	-10.9468
▁farma	-10.9476
▁satan	-10.9487
jada	-10.9495
▁sanch	-10.9497
▁utart	-10.9498
▁nish	-10.9502
▁gulu	-10.9525
▁khoe	-10.9528
▁ramz	-10.9529
▁apn	-10.9549
▁niklen	-10.9551
▁Dhalt	-10.9552
▁ghammaz	-10.9552
▁nalan	-10.9553
adai	-10.9557
▁khincht	-10.9578
▁roke	-10.9592
▁mut	-10.9594
▁pair	-10.9607
sitan	-10.9614
▁bahte	-10.9616
▁dikhati	-10.963
iya	-10.9634
▁risht	-10.9634
▁ze	-10.9646
bak	-10.9646
▁saud	-10.9652
▁gabr	-10.9653
▁chaDht	-10.9665
sae	-10.9674
awaT	-10.9689
▁sir	-10.9697
▁jhapak	-10.9711
hul	-10.9715
ruKHi	-10.9716
▁mua	-10.9734
▁muamla	-10.9748
lat	-10.9774
▁nadani	-10.978
▁dabe	-10.9781
▁malt	-10.9794
bina	-10.9862
▁mahrumi	-10.9865
▁tarast	-10.9878
▁pau	-10.9881
▁soKHta	-10.9911
ghariban	-10.9924
▁choTi	-10.9931
fursat	-10.9933
▁fa	-10.9944
▁tuti	-10.9964
▁nakaam	-10.9971
joshi	-10.9976
gahi	-10.9982
▁chhuTe	-10.9988
gum	-10.9999
guzishta	-11
sulaiman	-11.0001
shakebai	-11.0002
KHuld	-11.0006
ijz	-11.0006
ghurbat	-11.0007
talKH	-11.0008
nikhat	-11.0008
gauhar	-11.0008
qaul	-11.0008
Thik	-11.0008
bistar	-11.0008
tabassum	-11.0008
zulmat	-11.0009
surKH	-11.0009
hausla	-11.001
ghazab	-11.001
KHanjar	-11.001
rishta	-11.001
daur	-11.0011
sukun	-11.0011
panah	-11.0013
iz	-11.0014
shair	-11.0016
jeb	-11.002
▁chubh	-11.0028
▁lewe	-11.0029
▁binai	-11.0031
simab	-11.0032
taraf	-11.0033
bosa	-11.0035
▁ghaeb	-11.0037
▁tarab	-11.0057
KHasta	-11.0087
jawed	-11.0097
▁sho	-11.0098
▁bekas	-11.01
▁khench	-11.0105
virani	-11.0106
▁dafn	-11.0107
▁buDh	-11.0108
▁lahj	-11.0108
nawazi	-11.011
gulab	-11.0117
libas	-11.0118
naf	-11.0119
▁imarat	-11.0124
qadd	-11.0124
▁ubhr	-11.0129
▁shohra	-11.0133
▁muhtaj	-11.0136
▁sujht	-11.0136
▁imdad	-11.0136
▁mansub	-11.0136
▁ifsha	-11.0136
▁phand	-11.0136
▁rizq	-11.0137
▁aTak	-11.0137
▁ghoD	-11.0137
▁aaluda	-11.0137
▁ukta	-11.0137
▁mukhDa	-11.0137
wiz	-11.0137
▁sazish	-11.0138
▁sozish	-11.0139
▁Dor	-11.0139
mauhum	-11.014
▁pakaD	-11.0141
▁aji	-11.0141
▁mohan	-11.0142
▁ghum	-11.0145
▁azmat	-11.0146
▁pagDi	-11.0147
ariz	-11.0148
aD	-11.0149
▁por	-11.015
▁kudurat	-11.0153
▁KHilqat	-11.0154
▁sarokar	-11.0155
▁dijo	-11.0155
▁ulajht	-11.0155
▁qaisar	-11.0155
▁chhab	-11.0155
▁madd	-11.0158
▁sha	-11.0161
▁anjaan	-11.0161
hil	-11.0162
garan	-11.0163
▁sabaq	-11.0163
▁barf	-11.0165
▁guzrega	-11.0165
kaD	-11.0165
▁auj	-11.0165
▁jawen	-11.0165
▁durust	-11.0167
▁chashmak	-11.0169
▁ishaaraat	-11.0169
▁shahin	-11.0174
▁dastur	-11.0176
▁habib	-11.0177
sama	-11.0179
▁sachcha	-11.0179
▁mansur	-11.0179
▁piyala	-11.0181
▁pyala	-11.0182
▁KHur	-11.0183
▁bhaTk	-11.0183
▁shar	-11.0187
▁uThaiye	-11.0188
▁madfan	-11.0189
▁behosh	-11.0191
laqa	-11.0193
▁taus	-11.0195
▁banaw	-11.0197
▁danish	-11.0198
▁sairab	-11.0199
▁bhejo	-11.0207
kali	-11.0209
▁mukh	-11.0218
▁qadim	-11.0219
▁uryani	-11.0223
bhaal	-11.0224
▁rish	-11.0238
▁fahm	-11.025
▁naujawan	-11.0255
mujhe	-11.0256
▁bun	-11.0256
▁baKHshi	-11.0268
▁guzrin	-11.0273
▁pina	-11.028
taj	-11.0288
▁barik	-11.0291
▁kafur	-11.0297
rahm	-11.0297
▁jhanka	-11.0308
▁samajhna	-11.0312
▁aashiyana	-11.0317
▁girt	-11.0317
ahang	-11.0322
kai	-11.0322
azan	-11.0324
▁guzarti	-11.0329
ng	-11.0342
▁masihai	-11.0358
bud	-11.0377
hab	-11.0383
▁koson	-11.0384
▁adaen	-11.0384
▁lahra	-11.0386
▁khola	-11.0435
▁juD	-11.0439
▁KHama	-11.0439
▁sozan	-11.0441
▁darman	-11.0444
arghawani	-11.0444
▁bhuli	-11.0458
▁Dara	-11.0467
▁nek	-11.0467
▁KHandan	-11.0482
▁likhi	-11.0485
▁Dubn	-11.0496
▁bh	-11.0498
abaad	-11.052
▁pyara	-11.0522
▁halq	-11.0529
▁Dube	-11.0536
▁sufi	-11.0557
▁chahiyen	-11.0558
ajal	-11.0565
▁jaanti	-11.0573
▁sana	-11.0579
▁peT	-11.0597
mat	-11.0601
▁jaweng	-11.062
▁ri	-11.0623
▁bujhi	-11.0629
▁bos	-11.0636
▁asiri	-11.0654
▁tezi	-11.0661
▁bimari	-11.0669
▁nadi	-11.0681
▁baiThn	-11.0684
aKH	-11.069
▁sunne	-11.0712
shikast	-11.0714
jin	-11.0717
sta	-11.0723
▁beche	-11.0732
mard	-11.0737
▁bil	-11.0742
▁afshan	-11.0743
▁ghaalib	-11.0746
Th	-11.0753
▁duKHt	-11.078
▁nash	-11.0789
▁gharon	-11.0795
ghan	-11.0796
talat	-11.0803
▁jhumt	-11.0805
umidi	-11.0811
shw	-11.0812
dahi	-11.0815
▁mala	-11.0822
▁kos	-11.0848
zeba	-11.0852
asan	-11.0858
dhaar	-11.0882
▁piT	-11.0888
ang	-11.089
azz	-11.0892
murda	-11.0899
KHamoshi	-11.0912
tishna	-11.0913
misr	-11.0915
shuur	-11.0915
nadamat	-11.0915
▁waz	-11.0915
hajat	-11.0916
shaida	-11.0916
sajda	-11.0917
naznin	-11.0917
shola	-11.0918
yusuf	-11.0918
imtihan	-11.0918
naseh	-11.0918
jaras	-11.0919
KHalwat	-11.0919
zer	-11.0919
qaid	-11.0919
waiz	-11.0921
bos	-11.0924
malal	-11.0925
aks	-11.0926
ilm	-11.093
diwana	-11.0937
sabaat	-11.0945
▁shaguf	-11.095
rud	-11.095
sabza	-11.0956
sinan	-11.0965
um	-11.0967
▁dhund	-11.098
▁bara	-11.0983
▁ganw	-11.0985
▁nara	-11.0993
ambar	-11.0997
▁nigahban	-11.0998
▁mushaf	-11.1006
KHara	-11.1006
▁jaano	-11.1013
▁darwesh	-11.1014
▁gustaKH	-11.1015
▁mamur	-11.1017
▁ghas	-11.1041
ashufta	-11.1044
nawisht	-11.1045
▁daKHl	-11.1045
▁eajaz	-11.1045
▁farigh	-11.1045
▁fazl	-11.1045
▁lapeT	-11.1045
▁madum	-11.1045
▁matlub	-11.1045
▁rakkhun	-11.1045
▁ibarat	-11.1045
▁moamla	-11.1045
▁taraazu	-11.1045
▁wardat	-11.1045
▁bholi	-11.1045
▁ghamanD	-11.1045
▁mulla	-11.1045
▁KHadang	-11.1045
▁ghuT	-11.1045
▁tilmila	-11.1046
▁dulha	-11.1046
▁aTka	-11.1046
▁qalib	-11.1046
▁bawl	-11.1046
▁aawargi	-11.1046
▁kandh	-11.1046
▁pahre	-11.1047
▁phaDak	-11.1047
▁elan	-11.1047
▁laTak	-11.1048
▁malik	-11.1048
▁gaThri	-11.1048
▁bolnan	-11.1049
▁bandish	-11.105
chakan	-11.1052
▁alawa	-11.1052
▁ehtiram	-11.1052
▁supurd	-11.1053
parastish	-11.1053
▁qa	-11.1054
hafiz	-11.1054
dis	-11.1058
▁bijliyan	-11.106
▁shaitan	-11.106
▁aagara	-11.1064
▁urus	-11.1065
▁sheKH	-11.1065
▁paiwand	-11.1065
▁zaiq	-11.1066
mashrab	-11.1066
▁afsun	-11.1066
▁dukha	-11.1068
▁shams	-11.1075
▁myan	-11.1075
▁zof	-11.1077
▁fasil	-11.1077
▁KHanuman	-11.1077
▁hawale	-11.1078
labi	-11.108
▁sawad	-11.1081
▁rahengi	-11.1081
▁sargarm	-11.1084
▁payambar	-11.1084
▁nairang	-11.1085
▁dariche	-11.1087
▁chira	-11.1091
nigun	-11.1097
▁sunun	-11.1101
▁masarrat	-11.1103
▁pindar	-11.1103
▁ishwa	-11.1103
▁shamim	-11.1104
▁dekhunga	-11.1105
▁sargiran	-11.1106
▁aaunga	-11.1109
▁KHanqah	-11.1109
▁gulchin	-11.111
▁milegi	-11.1111
▁dal	-11.1111
▁kaji	-11.1114
▁andoh	-11.1115
▁ejaz	-11.1115
▁tilismat	-11.1116
▁sambhaala	-11.1119
tafraqa	-11.1122
▁sako	-11.1122
haha	-11.1124
▁KHisht	-11.1128
▁sarshaar	-11.1128
▁kala	-11.1131
▁dah	-11.1133
▁kohsar	-11.1138
tira	-11.1138
▁ranai	-11.1138
▁khulwa	-11.1139
▁des	-11.1146
subur	-11.1148
▁ibrat	-11.1154
▁jafaen	-11.1157
▁jhum	-11.1158
▁qayam	-11.1163
▁chhinT	-11.1163
▁misi	-11.1164
▁dhaj	-11.1165
fahmi	-11.1166
▁shaklen	-11.1169
▁qazi	-11.1171
▁baatil	-11.1174
▁thake	-11.1175
hal	-11.1177
▁baalin	-11.1184
▁nar	-11.119
maya	-11.1198
kasho	-11.1199
▁panah	-11.1201
▁gahra	-11.1203
▁purze	-11.1217
▁chhupana	-11.1217
kha	-11.122
▁uDn	-11.1245
▁tariki	-11.1256
▁sitaro	-11.1262
chhaD	-11.1266
chh	-11.1277
▁baqa	-11.1285
zani	-11.1291
dani	-11.1306
▁bharte	-11.1314
▁bhigo	-11.1317
▁KHan	-11.1317
▁maqsud	-11.1323
duKHtar	-11.1326
▁khana	-11.1329
paimai	-11.1329
▁bahaaren	-11.133
abla	-11.1331
salar	-11.1336
▁tinke	-11.135
dosti	-11.1357
▁ghay	-11.1358
ammal	-11.1364
hind	-11.1383
stiyan	-11.1389
▁sadaen	-11.1394
▁DhunDe	-11.1398
▁KHunin	-11.1409
ila	-11.1415
▁paband	-11.143
nawai	-11.1438
▁paDen	-11.1455
▁muaf	-11.1457
▁bujhte	-11.1499
jihat	-11.1501
▁utren	-11.1513
▁jhonk	-11.1518
▁jhonke	-11.152
▁sinan	-11.1531
shar	-11.155
▁farmat	-11.1566
▁samay	-11.1579
haTen	-11.1585
▁kaamil	-11.1588
▁chhap	-11.1592
▁basan	-11.1605
▁lagaen	-11.1615
▁bichhD	-11.1624
▁bolt	-11.1625
qar	-11.1626
sazi	-11.1636
nazara	-11.1647
▁TuTt	-11.1648
maq	-11.1659
raftagi	-11.166
▁qar	-11.1662
▁aandhiy	-11.1663
zarra	-11.1667
saKHta	-11.1682
▁past	-11.1706
▁naKHuda	-11.1718
▁ghani	-11.1723
▁bache	-11.1746
▁faraaz	-11.1756
itab	-11.176
Dh	-11.1773
yagana	-11.1776
▁pachhta	-11.1787
riya	-11.1791
KHiraman	-11.1816
▁nibh	-11.182
kulah	-11.1836
musalman	-11.1849
zarf	-11.1849
KHub	-11.186
▁chhaal	-11.1863
▁motiy	-11.1864
unchi	-11.1872
pesh	-11.1885
▁bhaDka	-11.1897
gin	-11.1906
KHutan	-11.1907
qayam	-11.1909
mushk	-11.1911
dawam	-11.1913
dhaj	-11.1913
qalb	-11.1913
zuleKHa	-11.1915
hazir	-11.1915
intiKHab	-11.1916
rikab	-11.1916
tapish	-11.1916
taskin	-11.1917
sawab	-11.1917
fusun	-11.1917
raegan	-11.1917
surur	-11.1917
wasf	-11.1918
tund	-11.1918
shukr	-11.1918
hazrat	-11.1918
mulk	-11.1918
chehra	-11.1918
shoala	-11.1918
qatra	-11.192
shafaq	-11.192
gardish	-11.1921
qadah	-11.1922
fitna	-11.1922
KHaridar	-11.1924
jadu	-11.1924
bazu	-11.1926
inayat	-11.1933
apni	-11.1935
paedar	-11.1942
farang	-11.1951
nang	-11.1951
tasir	-11.1951
KHandan	-11.1953
▁chaalak	-11.196
▁min	-11.1983
ausan	-11.1995
girah	-11.1996
▁uThaen	-11.2005
▁hadd	-11.2017
▁mel	-11.2025
bini	-11.2026
▁yu	-11.2029
▁sikhe	-11.2031
awat	-11.2032
▁uchaT	-11.2045
▁fulan	-11.2045
▁musawwir	-11.2045
▁qulzum	-11.2045
▁shughl	-11.2045
mimbar	-11.2045
▁poshida	-11.2045
▁wajib	-11.2045
▁sujha	-11.2045
▁gaz	-11.2045
▁ubhaar	-11.2045
hazin	-11.2045
▁iKHtilaf	-11.2045
▁israr	-11.2046
▁zalil	-11.2046
▁nichoD	-11.2046
▁piyo	-11.2046
▁sandal	-11.2046
▁surahi	-11.2046
pazir	-11.2046
▁mazur	-11.2046
▁mushtari	-11.2046
▁lachak	-11.2046
▁git	-11.2047
▁rukawaT	-11.2047
▁ragaD	-11.2047
farebi	-11.2047
▁reg	-11.2047
▁rida	-11.2048
▁larzan	-11.2048
KHarosh	-11.205
aftab	-11.205
▁Tok	-11.2051
zabun	-11.2051
▁lubha	-11.2053
▁naKHchir	-11.2053
ullah	-11.2055
▁rumal	-11.2055
▁mabaada	-11.2056
▁ghamgin	-11.2057
tarani	-11.2058
▁baKHiya	-11.2061
▁parcham	-11.2064
▁paTTi	-11.2065
▁sadma	-11.2066
▁istiar	-11.2067
▁bataiye	-11.2067
▁hindu	-11.2068
▁chhalka	-11.2069
▁marqad	-11.2069
▁khilaun	-11.2071
▁raKHna	-11.2072
▁jhaT	-11.2074
llah	-11.2074
▁jawega	-11.2075
▁yaksu	-11.2078
dilbari	-11.2079
aata	-11.2083
▁fil	-11.2084
▁hadsa	-11.2085
▁punj	-11.2086
▁parbat	-11.209
▁zohd	-11.2095
▁timsal	-11.2095
▁uncha	-11.2095
▁neamat	-11.2095
▁paDega	-11.2096
▁KHema	-11.2098
▁dikhaun	-11.2101
▁alb	-11.2103
▁qarya	-11.2103
▁muskuraat	-11.2105
▁ghabraat	-11.2108
▁KHulus	-11.2109
▁shefta	-11.2109
▁taraj	-11.2111
▁zardi	-11.2113
▁sipahi	-11.2114
▁tajrab	-11.2115
lo	-11.212
▁maqsad	-11.2123
▁maani	-11.2124
▁hamdard	-11.2126
▁aaphi	-11.2134
▁sarishk	-11.2137
▁chap	-11.214
buka	-11.214
▁sula	-11.2144
▁dargah	-11.2144
▁shakar	-11.2149
▁gint	-11.2149
▁jarahat	-11.215
▁halka	-11.2151
▁jita	-11.2157
▁girne	-11.216
▁bit	-11.2161
▁paDhne	-11.2166
▁shadab	-11.2168
▁sakin	-11.2168
▁howen	-11.2177
▁aali	-11.2178
afza	-11.218
▁sarkash	-11.2181
▁ang	-11.2182
wapsin	-11.2182
▁taswiren	-11.2184
▁ghabrae	-11.2187
▁uga	-11.2188
▁likhna	-11.2189
▁kashana	-11.2192
▁loT	-11.2204
▁farang	-11.2208
▁kholi	-11.2218
goi	-11.2223
▁nikalin	-11.2224
▁raftagan	-11.2228
afaq	-11.2231
▁mazi	-11.2232
▁taslim	-11.2238
▁uThna	-11.2238
▁maz	-11.224
pardaz	-11.2242
mum	-11.2244
▁aaThon	-11.2255
▁katar	-11.2256
▁majburi	-11.2261
▁azizo	-11.2266
▁lati	-11.2295
▁kotah	-11.2298
▁ash	-11.23
▁bolo	-11.2315
ubat	-11.2318
▁aable	-11.2335
▁KHatar	-11.2338
▁gudguda	-11.2339
taraaz	-11.2341
▁bante	-11.2355
▁gadai	-11.2356
▁karnan	-11.2359
▁inan	-11.2364
▁daw	-11.2365
▁banT	-11.2366
▁ghane	-11.2374
▁KHazan	-11.238
▁pha	-11.2403
▁sahba	-11.2415
▁t	-11.243
▁lagin	-11.2458
▁kanar	-11.246
▁kul	-11.2462
▁baDhi	-11.2468
▁baatin	-11.247
▁aazman	-11.2473
haiwan	-11.2474
▁bachi	-11.2479
▁kaDa	-11.2507
▁dikhlae	-11.2557
▁tash	-11.2562
▁gate	-11.2564
▁bikhr	-11.2573
sin	-11.2579
▁karb	-11.26
tatar	-11.2601
▁uThaun	-11.261
min	-11.2614
▁sunen	-11.2624
▁miliy	-11.2628
qab	-11.2652
safi	-11.2655
▁dilbari	-11.2655
▁hile	-11.2656
num	-11.2661
yyat	-11.2679
▁zamzam	-11.2689
▁baiThen	-11.2705
▁gu	-11.2706
uf	-11.2711
▁sipah	-11.2733
▁pura	-11.2737
▁kaund	-11.2764
▁dh	-11.2766
▁haft	-11.2767
▁lagana	-11.2767
rumi	-11.2768
▁zae	-11.277
▁chhal	-11.28
▁ghere	-11.2806
▁asa	-11.2808
pe	-11.2819
▁phiren	-11.2823
▁hir	-11.2832
sir	-11.285
▁sala	-11.2852
▁dang	-11.2853
▁chheDn	-11.2854
uq	-11.2876
atta	-11.2889
kat	-11.2892
wahi	-11.2893
dham	-11.2896
▁rangini	-11.2906
engi	-11.2908
▁chhupat	-11.2915
▁momin	-11.2917
bun	-11.2923
amez	-11.2935
Thin	-11.294
▁DhunDn	-11.2963
jawan	-11.2966
▁lana	-11.2968
▁pana	-11.298
abhi	-11.298
araq	-11.2981
▁aainda	-11.2987
▁amr	-11.2993
dhan	-11.2999
asr	-11.301
rish	-11.3018
bul	-11.3021
▁banai	-11.3023
hikayat	-11.3024
ibrat	-11.3025
iltifat	-11.3027
hirs	-11.3028
rindana	-11.3028
barahna	-11.3028
mazhab	-11.3028
mujhko	-11.3028
zunnar	-11.3028
huzur	-11.3029
kakul	-11.3029
rafu	-11.3029
ghurur	-11.3029
▁batae	-11.303
KHauf	-11.303
bahut	-11.303
▁tabi	-11.303
nashsha	-11.3031
tishnagi	-11.3031
phul	-11.3031
marham	-11.3031
mera	-11.3032
meri	-11.3033
kyun	-11.3033
baghban	-11.3033
irfan	-11.3034
rawish	-11.3035
zanu	-11.3035
gor	-11.3036
begana	-11.3037
anjuman	-11.304
mastana	-11.3042
barham	-11.3046
gharaz	-11.3047
soKHta	-11.3057
▁buto	-11.3057
zard	-11.3059
kafan	-11.3059
azmai	-11.3071
nairang	-11.3073
tun	-11.3076
agan	-11.308
astan	-11.3081
gada	-11.3091
tarz	-11.3097
▁auraq	-11.3098
KHalif	-11.3098
fur	-11.3107
bastagi	-11.3111
▁surm	-11.3118
waza	-11.3122
▁bhuk	-11.3126
▁waqf	-11.3127
▁sannaT	-11.3127
ammul	-11.3147
it	-11.3153
▁mugh	-11.3156
lucknow	-11.3156
▁KHosha	-11.3156
▁dilchasp	-11.3156
▁jhijak	-11.3156
▁quwwat	-11.3156
▁dupaTT	-11.3156
▁pankhuDi	-11.3156
▁raKHt	-11.3156
▁tashbih	-11.3157
▁hissa	-11.3157
▁munsif	-11.3157
▁KHafaqan	-11.3157
▁gundh	-11.3157
▁jhil	-11.3157
▁sapna	-11.3157
▁khanDar	-11.3157
▁mishal	-11.3157
▁haweli	-11.3157
▁phank	-11.3157
▁pujari	-11.3157
▁jhaTak	-11.3157
▁dhuen	-11.3158
▁fatih	-11.3158
▁khaTka	-11.3158
▁farmaiyega	-11.3158
▁laTka	-11.3159
▁pazeb	-11.3159
▁niko	-11.3161
▁nasl	-11.3161
rid	-11.3161
▁hichki	-11.3162
▁tazkira	-11.3162
▁chul	-11.3163
▁maskan	-11.3165
▁taqlid	-11.3165
▁suwaida	-11.3165
▁hifazat	-11.3165
▁nawed	-11.3167
▁boriya	-11.3169
holi	-11.3169
▁Takra	-11.3171
hirman	-11.3174
najd	-11.3175
▁subut	-11.3175
zud	-11.3176
▁bujhe	-11.3176
▁aahang	-11.3177
▁shua	-11.3177
▁chaarasaz	-11.3179
▁ghabraya	-11.318
▁tohfa	-11.3181
▁shikam	-11.3181
▁faKHr	-11.3182
shadi	-11.3182
▁fanus	-11.3184
▁bulaya	-11.3184
▁sannaTa	-11.3186
siwa	-11.3188
▁milap	-11.3188
yaman	-11.3191
kaami	-11.3193
▁gung	-11.3196
▁KHajlat	-11.3196
▁makr	-11.3196
▁muhit	-11.3198
▁musta	-11.3199
▁baKHshish	-11.3201
▁khaiye	-11.3202
▁baDht	-11.3204
▁nafs	-11.3207
▁kaTari	-11.3208
▁shamshad	-11.3211
▁sani	-11.3212
▁afzun	-11.3212
▁ishtiyaq	-11.3212
▁wahdat	-11.3212
▁aatishin	-11.3214
▁farah	-11.3214
▁bachcha	-11.3216
betabi	-11.3217
▁niklun	-11.322
▁arzani	-11.3222
▁aadha	-11.3223
▁paenge	-11.3223
▁qulqul	-11.3228
▁shagufta	-11.3229
▁qat	-11.3237
▁uljhe	-11.3245
▁hubab	-11.3245
▁nagawar	-11.3248
▁laghar	-11.3251
▁talafi	-11.3255
▁angusht	-11.3255
▁lauh	-11.3255
▁jagir	-11.3275
KHarabi	-11.3286
▁aaoge	-11.3287
wara	-11.33
kesh	-11.3301
kitab	-11.3301
▁damak	-11.3303
KHama	-11.3309
▁qalb	-11.331
▁aamada	-11.3311
nwal	-11.3313
noshi	-11.3327
▁banao	-11.3353
▁chaDhi	-11.3358
▁jage	-11.3359
sus	-11.336
nga	-11.3363
▁pahchana	-11.3376
▁gumrah	-11.3384
▁sayya	-11.3386
mul	-11.3395
▁bair	-11.3397
▁saken	-11.3403
▁jaza	-11.3423
▁shamat	-11.3431
wazu	-11.3432
▁qarine	-11.3433
▁basi	-11.3434
▁khaT	-11.3448
▁janaz	-11.3457
baiza	-11.3467
▁aahan	-11.3478
▁taDapt	-11.3482
▁uThen	-11.3482
aghaz	-11.3484
jun	-11.3487
goya	-11.3489
▁likkh	-11.349
▁Tapakt	-11.3492
para	-11.3495
kashida	-11.3499
rezi	-11.3521
KHaki	-11.3527
mehri	-11.3529
▁asrar	-11.3538
bhari	-11.3553
▁samjhata	-11.3558
tifli	-11.3574
mam	-11.3606
▁dostan	-11.3612
▁giraftari	-11.3612
▁saneha	-11.3614
▁socho	-11.3648
▁bhaw	-11.3663
adh	-11.3683
▁talat	-11.3691
▁dawe	-11.3707
taat	-11.371
▁rakhne	-11.3715
yam	-11.3721
mazi	-11.3722
jui	-11.3723
▁Thahart	-11.3724
▁chhaale	-11.3729
sun	-11.3731
▁dekhti	-11.3748
▁chhalak	-11.3756
▁shamen	-11.3762
▁pawe	-11.3777
▁chhalakt	-11.3782
▁Daraat	-11.3786
▁khu	-11.3815
ayya	-11.3824
▁farman	-11.3825
rim	-11.3835
namus	-11.3841
▁chhil	-11.3845
▁bhaDak	-11.3847
giri	-11.3853
▁barchhi	-11.3858
usk	-11.3862
ashnai	-11.3877
asl	-11.3882
poshi	-11.3883
▁chhupe	-11.3892
▁baran	-11.3897
▁nach	-11.3909
maz	-11.3935
▁hansti	-11.394
▁dikhao	-11.3942
shana	-11.3945
dariyan	-11.3967
▁darun	-11.3969
▁me	-11.3978
▁mano	-11.3982
▁char	-11.3986
▁ujl	-11.4024
▁baiThi	-11.4026
▁ayyari	-11.4052
▁z	-11.4072
wah	-11.4096
baq	-11.4106
▁gil	-11.4107
aankh	-11.4126
▁KHusraw	-11.4135
iram	-11.4156
▁sambhaln	-11.4158
▁maKH	-11.4162
▁bhage	-11.4166
sipar	-11.4187
▁Thaharn	-11.4192
▁mukar	-11.4239
hid	-11.424
▁taDp	-11.4252
▁bikhart	-11.4256
▁p	-11.4263
▁nida	-11.4266
▁rakkhen	-11.4267
jaulan	-11.4268
thi	-11.427
inan	-11.4272
KHirman	-11.4275
taqrir	-11.4277
buniyaad	-11.4277
sumbul	-11.4278
qibla	-11.4278
asbab	-11.4278
ehsas	-11.4279
maqtal	-11.4279
masjid	-11.4279
dushwar	-11.4279
turbat	-11.4279
gurezan	-11.4279
shajar	-11.428
pahlu	-11.428
shaiKH	-11.428
samajh	-11.428
mausam	-11.428
munh	-11.428
shikayat	-11.4281
Tuk	-11.4281
qahr	-11.4281
kunj	-11.4282
maqam	-11.4283
danish	-11.4283
wadi	-11.4284
kohna	-11.4284
raf	-11.4284
tul	-11.4285
jang	-11.4286
kaj	-11.429
baalin	-11.4292
unwan	-11.4298
kabab	-11.4298
kahte	-11.4299
pesha	-11.4301
▁tawa	-11.4305
sitamgar	-11.431
paigham	-11.4312
matam	-11.4312
karamat	-11.4314
bur	-11.4319
yat	-11.432
▁khiDkiy	-11.4333
aziz	-11.4336
▁suhan	-11.4341
paimana	-11.4344
dastan	-11.4347
gosha	-11.4356
KHa	-11.4358
▁khole	-11.4362
▁ghun	-11.4363
▁gunguna	-11.437
▁saliq	-11.438
▁bap	-11.4385
▁moh	-11.4386
tha	-11.4396
▁angar	-11.4399
▁ima	-11.4404
▁shaista	-11.4405
▁umang	-11.4406
▁uruj	-11.4406
▁aaqibat	-11.4406
▁daKHil	-11.4406
▁dahliz	-11.4406
▁ehtimam	-11.4406
▁ijara	-11.4406
▁intiqam	-11.4406
▁muttasil	-11.4406
▁niDhaal	-11.4406
▁ojhal	-11.4406
▁shoabada	-11.4406
▁faqih	-11.4406
▁nikhaar	-11.4406
▁adhur	-11.4407
▁waqai	-11.4407
▁shagird	-11.4407
▁walwale	-11.4407
▁brahman	-11.4407
▁tarjuman	-11.4407
▁himayat	-11.4407
▁razm	-11.4407
▁mohtaj	-11.4407
▁ajza	-11.4407
▁jhamke	-11.4407
▁zahmat	-11.4407
▁dashna	-11.4407
▁qaim	-11.4407
▁ankhDiy	-11.4407
▁satwat	-11.4407
▁tarsega	-11.4408
▁munajat	-11.4408
▁qaht	-11.4408
▁saughat	-11.4408
▁muamma	-11.4409
▁waqar	-11.4409
▁talim	-11.4409
▁naqs	-11.4409
▁halal	-11.4409
▁wasta	-11.4409
▁nauha	-11.441
▁dhajji	-11.441
▁shayan	-11.441
▁tirchh	-11.4411
▁rozgar	-11.4411
▁arzan	-11.4411
▁murid	-11.4411
▁waris	-11.4414
▁beshtar	-11.4415
▁bahka	-11.4415
▁bachpan	-11.4415
▁hujjat	-11.4417
▁inqilab	-11.4417
▁zohra	-11.4417
▁ehtiyaj	-11.4417
▁ittifaq	-11.4417
▁tamhid	-11.4417
▁KHakistar	-11.4417
▁chilman	-11.4417
▁amanat	-11.4417
▁ustuwar	-11.4417
afkar	-11.4417
▁munfa	-11.4417
arif	-11.4419
▁tauqir	-11.4419
▁aafaq	-11.4421
▁qatar	-11.4422
jiyo	-11.4423
▁sidhaar	-11.4427
▁multa	-11.4427
▁manj	-11.443
▁bahak	-11.443
▁KHugar	-11.4431
▁KHamyaza	-11.4434
▁alfaz	-11.4434
▁fuzun	-11.4434
▁hukumat	-11.4434
▁maghz	-11.4434
▁mantiq	-11.4434
▁chob	-11.4434
▁KHizar	-11.4435
▁sharafat	-11.4437
▁waqfa	-11.444
amad	-11.444
awara	-11.4441
▁hadsat	-11.4441
▁bechaara	-11.4443
asil	-11.4443
▁zarb	-11.4446
▁roiye	-11.4447
tale	-11.4447
farish	-11.4449
▁yakja	-11.445
▁uljhan	-11.4451
▁khod	-11.4452
▁imtiyaz	-11.4452
▁siyasat	-11.4452
▁tarkash	-11.4452
▁maula	-11.4453
▁aKHtar	-11.4453
▁hurmat	-11.4453
lif	-11.4456
▁burq	-11.4457
▁nirala	-11.446
▁tujhko	-11.4461
▁likhe	-11.4463
▁Khaali	-11.4465
▁faragh	-11.4466
▁chhaT	-11.4471
▁kulfat	-11.4471
▁Dhang	-11.4473
▁paega	-11.4474
bostan	-11.4474
▁farmao	-11.4476
▁tulu	-11.4479
▁rukte	-11.448
▁KHaliq	-11.448
▁afsurdagi	-11.4481
▁natija	-11.4484
mor	-11.4487
▁mohall	-11.4488
▁muskuran	-11.449
▁aaiyo	-11.4491
▁kahkashan	-11.4492
▁parinda	-11.4492
ruKHan	-11.4495
▁banega	-11.4499
▁tharthara	-11.4504
▁yakbar	-11.4506
▁hikmat	-11.4507
▁chaTak	-11.4507
chaara	-11.4507
▁tarana	-11.4511
▁fazaen	-11.4514
▁zang	-11.4516
▁mariye	-11.4516
▁suniye	-11.4521
▁taul	-11.4521
▁girafta	-11.4522
ahwal	-11.4524
▁chhall	-11.4526
azim	-11.4529
aKHshan	-11.453
▁KHarash	-11.4531
▁sawer	-11.4532
▁azizan	-11.4536
▁bulat	-11.4539
▁gh	-11.4543
▁she	-11.4544
▁maT	-11.4549
▁dhara	-11.4553
▁dilkash	-11.4559
▁irfan	-11.4561
▁laf	-11.4565
▁mante	-11.4571
▁bedari	-11.4574
pahal	-11.4575
▁mastan	-11.4576
▁aiwan	-11.4578
▁kotahi	-11.4579
▁rikab	-11.458
▁chaDhe	-11.4585
▁hongi	-11.459
▁phaili	-11.4595
ihan	-11.4597
nazari	-11.4602
▁Khaar	-11.4605
▁rukn	-11.4606
▁muddaten	-11.4606
KHali	-11.4612
▁laDak	-11.4612
ankh	-11.4614
▁sulaiman	-11.4617
▁haibat	-11.462
▁dikhana	-11.4626
gam	-11.4634
mata	-11.4641
daraKHshan	-11.4642
▁jha	-11.4647
ehram	-11.4648
▁po	-11.4652
▁muztar	-11.4655
▁chhani	-11.4663
▁chhaDi	-11.4664
bana	-11.4671
▁nigaran	-11.4672
▁shahadat	-11.4675
▁bichhaDn	-11.4675
mizaji	-11.4677
fal	-11.4678
▁khili	-11.4682
▁miTha	-11.4683
▁lail	-11.4684
▁reKHta	-11.4687
▁barhami	-11.4695
▁guzargah	-11.4704
andam	-11.4711
▁jawedan	-11.4712
▁jalwagar	-11.4712
▁legi	-11.4713
agi	-11.4716
nihani	-11.4729
ranjur	-11.4743
▁khapa	-11.4744
hijabi	-11.4747
▁bahalt	-11.4749
▁suljha	-11.4752
▁sain	-11.4753
tamir	-11.4756
▁yari	-11.476
▁ud	-11.4774
▁phiriye	-11.4778
lag	-11.4792
▁naq	-11.4801
▁bebas	-11.4823
▁beT	-11.4829
▁guzari	-11.4851
qu	-11.4852
mail	-11.4854
▁mari	-11.4877
▁raj	-11.4878
▁mor	-11.4897
subha	-11.4901
qah	-11.4907
▁siya	-11.4912
nami	-11.4918
▁bhaTakt	-11.4926
▁sarsar	-11.4935
▁bahaaran	-11.494
▁pesha	-11.4953
▁chhoDen	-11.4956
dasti	-11.4961
▁kuDh	-11.498
▁bajae	-11.4985
▁DhunDhn	-11.5
▁banki	-11.5004
▁bigaDt	-11.5006
kalim	-11.5018
dah	-11.5026
damani	-11.5028
▁qaidi	-11.5035
▁muq	-11.5044
KHwahi	-11.5069
▁bite	-11.5073
▁chalun	-11.5088
▁haihat	-11.5117
qiq	-11.5146
▁fariyaadi	-11.5156
▁maren	-11.5175
▁bis	-11.5175
▁tars	-11.5176
▁faqiri	-11.5185
▁nabi	-11.5188
▁KHwan	-11.5193
nahaar	-11.5199
▁garan	-11.5215
rahan	-11.5217
ph	-11.5218
▁achchh	-11.525
bal	-11.5253
tera	-11.5275
▁pabandi	-11.5278
▁sharabi	-11.531
▁ujal	-11.5316
▁likkhe	-11.5318
▁bujht	-11.5331
▁lawe	-11.5335
▁yaka	-11.5337
▁taKHta	-11.5343
chi	-11.5345
▁uDai	-11.5351
▁ubhart	-11.5359
▁sochiye	-11.5425
▁tal	-11.5432
hl	-11.5442
▁ishaar	-11.5466
▁kamin	-11.5478
dd	-11.549
▁rach	-11.5492
pal	-11.5505
▁kholt	-11.5515
ghazalan	-11.5515
mur	-11.5526
inda	-11.5532
girafta	-11.554
▁riyaz	-11.5568
▁kushad	-11.5575
▁nag	-11.5578
▁kalai	-11.5595
▁g	-11.5622
▁laDki	-11.5625
mahbub	-11.5626
▁bheje	-11.5633
▁maila	-11.5637
dada	-11.5647
▁kahla	-11.5653
riz	-11.5662
▁dhundla	-11.567
dara	-11.5672
▁bhigi	-11.5672
hangam	-11.5679
▁naseha	-11.568
diwan	-11.5681
tiflan	-11.5697
sutun	-11.5699
angusht	-11.5701
sarishk	-11.5702
chaalak	-11.5702
ghaT	-11.5702
sarshaar	-11.5703
KHisht	-11.5703
mukh	-11.5704
mardum	-11.5704
kawish	-11.5704
qadim	-11.5704
zabh	-11.5705
jhaD	-11.5706
tahrir	-11.5706
mubtala	-11.5706
nukta	-11.5706
muflis	-11.5706
raqam	-11.5707
kaenat	-11.5707
chap	-11.5707
KHarash	-11.5707
zindagani	-11.5707
KHarabaat	-11.5707
raqs	-11.5707
justuju	-11.5708
faqr	-11.5708
kafur	-11.5708
chhup	-11.5708
zikr	-11.5708
mas	-11.5709
tanha	-11.571
silsila	-11.571
hamein	-11.571
mahmil	-11.5711
shabistan	-11.5713
kushada	-11.5714
rzish	-11.5719
shakar	-11.572
mahal	-11.5722
sawar	-11.5725
gawar	-11.573
kaman	-11.5732
gali	-11.5733
nagin	-11.5734
hangama	-11.5737
ayan	-11.5738
hath	-11.5743
dastar	-11.5747
▁talaf	-11.5763
▁mahz	-11.5772
namaz	-11.5775
▁phenke	-11.5785
▁laj	-11.5787
assam	-11.5789
tariq	-11.5789
▁bahat	-11.5798
shahi	-11.5803
azab	-11.5805
humne	-11.5806
chah	-11.5815
▁pinha	-11.5817
▁shakeb	-11.5823
▁kargar	-11.5831
shigaf	-11.5832
▁chhiD	-11.5833
▁chakk	-11.5834
▁zill	-11.5834
zade	-11.5834
▁zind	-11.5834
▁KHirqa	-11.5835
▁bhole	-11.5835
▁chakhkho	-11.5835
▁jhiDak	-11.5835
▁riwayat	-11.5835
▁sirijan	-11.5835
maKHluq	-11.5835
▁malbus	-11.5835
▁mudaraat	-11.5835
▁tewri	-11.5835
▁pazirai	-11.5835
▁tawil	-11.5835
▁gharaund	-11.5835
▁naqqash	-11.5835
▁chulbula	-11.5835
▁ayagh	-11.5835
nuh	-11.5835
▁zabardast	-11.5835
▁mashghul	-11.5835
dijur	-11.5835
▁konpal	-11.5835
▁bilkul	-11.5835
▁muqim	-11.5835
▁moattar	-11.5835
astin	-11.5836
▁nawishta	-11.5836
▁KHilat	-11.5836
▁chhiDka	-11.5836
▁shahsawar	-11.5836
▁nistan	-11.5836
▁radd	-11.5837
▁farmaiye	-11.5837
▁palang	-11.5837
▁tazgi	-11.5837
▁qabl	-11.5837
▁nagri	-11.5837
▁mashwara	-11.5838
▁pairaw	-11.5838
▁pyal	-11.5838
afgan	-11.5838
▁markaz	-11.584
▁kamzor	-11.5841
▁bhabhuka	-11.5842
▁muraqqa	-11.5842
▁marsiya	-11.5842
▁giroh	-11.5842
zadagan	-11.5844
▁nilam	-11.5844
▁dohra	-11.5844
▁ghamze	-11.5844
▁piyun	-11.5844
gashtagi	-11.5845
▁lapak	-11.5846
▁dalan	-11.5846
▁jhapki	-11.5847
▁ghaugha	-11.5847
▁nuzul	-11.5847
▁murshid	-11.5847
▁amboh	-11.5847
▁uslub	-11.5847
▁mahjub	-11.5847
▁paiwast	-11.5847
thal	-11.5848
▁kasb	-11.5848
▁sungh	-11.5849
faqat	-11.585
▁juya	-11.5853
▁rakhiyega	-11.5856
▁latif	-11.5856
▁uftad	-11.5857
▁kashtiyan	-11.5857
▁badaulat	-11.5858
▁thuka	-11.5858
▁paik	-11.5859
ashiqan	-11.5861
▁zoa	-11.5862
▁aandhiyan	-11.5862
muqadda	-11.5866
▁fitrak	-11.5867
▁muqarrar	-11.5867
▁sharif	-11.5867
▁lihaz	-11.5867
▁mazdur	-11.5868
▁maslak	-11.5868
mohkam	-11.5868
nihaal	-11.587
▁samaat	-11.5873
azadi	-11.5873
▁sikhla	-11.5874
▁paoge	-11.5874
▁tayyari	-11.5876
▁mamura	-11.5883
▁takmil	-11.5885
▁tink	-11.5886
▁it	-11.5886
▁wusaten	-11.5888
▁fath	-11.5888
▁tasKHir	-11.5888
▁jibril	-11.5888
▁jawahar	-11.5888
▁infial	-11.5888
▁darpai	-11.5888
▁piyen	-11.5889
▁maKHmal	-11.5889
▁ghaib	-11.5889
talai	-11.5891
▁tag	-11.5892
dakan	-11.5894
▁sanat	-11.5894
▁ruswaiyan	-11.5895
gahani	-11.59
▁nasheb	-11.59
▁nazzar	-11.59
achana	-11.5901
ganj	-11.5901
andaza	-11.5907
▁aqd	-11.5908
▁darham	-11.5909
▁qaum	-11.5909
▁almas	-11.591
▁Das	-11.5911
▁kishwar	-11.5911
▁dekhiyega	-11.5911
▁sanwarne	-11.5912
▁wu	-11.5913
▁Tik	-11.5913
▁janaza	-11.5914
hua	-11.5916
udhaar	-11.5918
▁tadbiren	-11.5922
▁chheDt	-11.5926
▁munim	-11.5926
▁muKHtar	-11.5928
▁munawwar	-11.593
▁tahayyur	-11.593
▁taqrib	-11.593
▁fuzul	-11.5931
▁madrasa	-11.5935
▁millat	-11.5938
▁zeba	-11.5938
▁huren	-11.594
duri	-11.5941
▁shikayaten	-11.5942
▁mauzun	-11.5944
▁garmiyan	-11.5944
▁tapak	-11.5944
▁rasmen	-11.5949
qimar	-11.5953
▁likhen	-11.5953
amn	-11.5955
▁jagna	-11.5956
▁gustaKHi	-11.5957
▁nigahbani	-11.5958
▁marhale	-11.5959
▁kud	-11.596
▁umiden	-11.5962
▁sarzamin	-11.5967
▁sarhad	-11.5969
fursati	-11.5971
▁taDapna	-11.5974
▁hind	-11.598
▁beganagi	-11.5981
▁khona	-11.5987
▁numu	-11.5996
▁banwa	-11.5997
giti	-11.5997
▁manaen	-11.6007
▁hoshyar	-11.601
▁sochen	-11.601
▁wazu	-11.6012
▁lauTa	-11.6014
▁shaidai	-11.6016
▁bashind	-11.602
▁kaD	-11.6021
pash	-11.6027
▁gunji	-11.6028
sayyal	-11.6034
▁mardan	-11.6039
▁TeDhe	-11.6039
anki	-11.604
▁milo	-11.6042
▁irade	-11.6048
▁tabahi	-11.6057
▁gardishen	-11.6063
▁guzishta	-11.608
anwar	-11.6099
▁ujDi	-11.6099
karim	-11.6101
▁kinaya	-11.6104
▁hisar	-11.6105
▁maf	-11.611
meh	-11.6111
ro	-11.6116
asiri	-11.6119
▁gol	-11.6123
▁basta	-11.6132
▁lagaun	-11.614
▁bhik	-11.6141
▁shakeba	-11.6145
▁aawen	-11.6149
▁phera	-11.6154
▁ghabrao	-11.6162
iza	-11.617
▁rasa	-11.6177
▁dikhaen	-11.6188
▁hadse	-11.6193
▁palT	-11.6215
▁chhupta	-11.6218
▁sabaat	-11.6218
rasta	-11.622
▁jast	-11.6224
▁KHad	-11.6233
▁lin	-11.6236
▁laDke	-11.6239
▁lam	-11.6239
▁lagao	-11.6239
paira	-11.6255
mash	-11.6259
▁sane	-11.6275
▁pakDe	-11.6282
murdan	-11.6284
▁phailt	-11.6288
▁KHarch	-11.6316
▁zan	-11.6319
zangar	-11.6322
▁majaz	-11.6324
▁chubho	-11.636
▁malak	-11.6361
▁namazi	-11.6362
makani	-11.6374
▁logo	-11.6383
▁uq	-11.6384
▁namat	-11.6393
▁sahe	-11.6395
▁iqbaal	-11.6411
▁dikhlai	-11.6416
shu	-11.6417
▁usul	-11.6418
▁salah	-11.6468
addar	-11.6469
▁Dhali	-11.6471
suna	-11.648
▁tabar	-11.6483
taq	-11.6489
▁bharna	-11.6499
▁sadq	-11.65
▁bed	-11.6506
▁putli	-11.6513
kiyan	-11.6519
▁ghaTt	-11.6523
▁manan	-11.6527
▁chust	-11.6546
▁nazuki	-11.6588
ton	-11.659
▁utara	-11.659
talabi	-11.6607
raazi	-11.6619
▁kholo	-11.6619
▁kankar	-11.662
▁bahaal	-11.663
simin	-11.665
▁fani	-11.665
och	-11.6664
▁chu	-11.6665
hans	-11.6671
saKHt	-11.6674
▁bharen	-11.6675
▁lamb	-11.6688
▁tumar	-11.6694
▁baba	-11.6709
▁dildari	-11.6713
fazil	-11.6718
musalmani	-11.674
▁chus	-11.6741
▁sinch	-11.6758
▁barasti	-11.6771
▁naghm	-11.6786
▁il	-11.6809
▁nacht	-11.681
yaz	-11.6812
shumari	-11.6822
▁barae	-11.6827
▁fi	-11.6832
ayyar	-11.6842
▁bhagt	-11.6843
▁sultan	-11.685
▁bhaDke	-11.6852
rabt	-11.6858
▁sachch	-11.6873
mujh	-11.6879
▁shu	-11.6899
ajib	-11.6902
▁raja	-11.6909
▁chhoTe	-11.6913
▁tughyan	-11.6929
▁kitn	-11.6936
ahan	-11.6936
▁arghawan	-11.6942
▁pand	-11.6949
kub	-11.6955
▁jad	-11.6979
▁jhel	-11.6983
kin	-11.7
▁sajaan	-11.7006
las	-11.7026
▁kh	-11.7031
sat	-11.7039
▁nak	-11.7079
majazi	-11.7109
▁mahakt	-11.7113
hram	-11.7147
▁takte	-11.7151
faq	-11.7171
▁phisal	-11.7171
lte	-11.7196
▁paTak	-11.7209
yaada	-11.7209
▁sulag	-11.7226
▁bat	-11.7253
mud	-11.7279
dun	-11.7304
bebak	-11.7305
sultan	-11.7308
ub	-11.7313
maza	-11.7321
zamzam	-11.7337
zeb	-11.7341
der	-11.7344
▁aaD	-11.7344
ilan	-11.7349
paima	-11.735
yaqut	-11.7357
bustan	-11.7358
hikmat	-11.7367
lauh	-11.7368
andoh	-11.737
beganagi	-11.737
kotah	-11.7371
maani	-11.7371
wuzu	-11.7371
maqsad	-11.7371
ibaadat	-11.7371
maslahat	-11.7372
pursish	-11.7372
zulm	-11.7373
mayus	-11.7373
hubab	-11.7373
zawal	-11.7373
ejaz	-11.7373
sukut	-11.7374
mazmun	-11.7374
musibat	-11.7374
andhere	-11.7374
qubul	-11.7374
qafila	-11.7374
bandagi	-11.7374
kufr	-11.7374
tadbir	-11.7374
majlis	-11.7374
qalandar	-11.7374
mumkin	-11.7375
qissa	-11.7375
halqa	-11.7375
shikwa	-11.7375
dukh	-11.7375
▁buDha	-11.7375
baiThe	-11.7375
sehr	-11.7376
▁boli	-11.7376
paikan	-11.7377
jarahat	-11.7377
salamat	-11.7377
zor	-11.7378
safed	-11.7378
▁fasurda	-11.7379
kohsar	-11.7383
safir	-11.7383
chiz	-11.7386
insaf	-11.7388
▁siyan	-11.7391
badal	-11.7395
ashiqana	-11.7401
sail	-11.7405
▁milun	-11.7407
rast	-11.7408
tabah	-11.7411
▁ghan	-11.7415
▁moajiza	-11.7415
apna	-11.7418
auqat	-11.742
mahrumi	-11.7422
kahan	-11.7424
saat	-11.7424
shahanshah	-11.7425
rishte	-11.7431
▁ilah	-11.7433
▁panj	-11.7442
muhab	-11.7442
bam	-11.7457
andesh	-11.7462
gardi	-11.7466
liyan	-11.7469
▁fu	-11.7469
▁puj	-11.7471
▁kurt	-11.7471
▁madras	-11.7472
▁qafiy	-11.7472
▁masih	-11.7473
▁tesh	-11.7477
▁KHem	-11.7481
zaron	-11.7489
▁kibr	-11.7499
ashob	-11.7501
▁chas	-11.7501
qand	-11.7502
KHusrau	-11.7502
▁ittihad	-11.7502
istighna	-11.7502
shiraaza	-11.7502
▁guzro	-11.7502
▁jhurmuT	-11.7502
▁nutq	-11.7502
▁shiwal	-11.7502
▁taaqub	-11.7502
▁tassuf	-11.7502
gandum	-11.7502
zamurrad	-11.7502
▁chakor	-11.7502
▁jawahir	-11.7502
▁naKHwat	-11.7502
ghiyas	-11.7502
▁farawani	-11.7502
▁funduq	-11.7502
▁wird	-11.7502
▁tawazo	-11.7502
▁taziyana	-11.7502
▁janjal	-11.7502
▁machhli	-11.7502
▁tafsil	-11.7502
zambur	-11.7502
▁ghota	-11.7502
jumla	-11.7502
▁monis	-11.7502
▁daere	-11.7502
▁mashaqqat	-11.7502
▁pamba	-11.7502
sujud	-11.7502
▁daera	-11.7502
▁chahchahe	-11.7502
takallum	-11.7502
imbisat	-11.7502
▁aafiyat	-11.7502
▁sanwl	-11.7502
▁chhid	-11.7502
▁walwala	-11.7502
▁mewe	-11.7503
▁Tapka	-11.7503
▁qabz	-11.7503
▁naunihaal	-11.7503
▁DanD	-11.7503
▁mafhum	-11.7503
▁ghaDe	-11.7503
▁dhabb	-11.7503
▁zehan	-11.7503
▁duzdida	-11.7503
▁chhiDke	-11.7503
▁aaseb	-11.7503
▁khaTke	-11.7503
▁aqiq	-11.7503
▁tunuk	-11.7503
▁maqul	-11.7504
▁lams	-11.7504
▁nimcha	-11.7504
▁daregh	-11.7504
▁hudud	-11.7504
▁wazifa	-11.7505
▁umD	-11.7505
st	-11.7505
▁dhim	-11.7505
▁dhanak	-11.7505
jalal	-11.7505
iffat	-11.7506
alhan	-11.7506
kaha	-11.7506
▁taKHir	-11.7507
atfal	-11.7507
taqid	-11.7508
▁lalach	-11.7508
▁andeshe	-11.7508
▁hadaf	-11.7508
▁dista	-11.7509
▁muqaddam	-11.7509
▁katra	-11.7511
▁sanad	-11.7511
▁aazurdagi	-11.7511
mamat	-11.7512
▁aashuftagi	-11.7513
▁shust	-11.7514
▁rulaya	-11.7514
▁chhalni	-11.7514
▁miThi	-11.7514
tapidan	-11.7514
▁loTte	-11.7515
▁bichhaun	-11.7516
▁ehtimal	-11.7516
▁buKHar	-11.7517
▁shaf	-11.7517
▁biThaya	-11.7517
▁sisakt	-11.7517
▁sudh	-11.7518
▁anasir	-11.7519
▁dhaD	-11.752
▁qila	-11.7521
▁darshan	-11.7521
▁Thukraat	-11.7521
▁beDiyan	-11.7522
▁zafrani	-11.7523
▁resha	-11.7524
▁Thahro	-11.7524
▁maroD	-11.7525
ghor	-11.7525
nabud	-11.7526
▁qurbaten	-11.7529
▁hujra	-11.753
▁jahil	-11.753
▁baadban	-11.7534
▁Daliye	-11.7535
▁laDka	-11.7535
manzar	-11.7536
▁majburiyan	-11.7536
jahat	-11.7539
▁masnad	-11.754
▁tuKHm	-11.754
▁sc	-11.754
nabard	-11.7541
sarab	-11.7541
▁phi	-11.7543
▁sargoshi	-11.7544
▁karoD	-11.7545
▁lamhat	-11.7546
▁rusta	-11.7547
▁Dol	-11.7548
▁rail	-11.755
kibriyai	-11.755
kariyan	-11.7552
▁khinchiye	-11.7552
dayar	-11.7553
dal	-11.7553
▁jamiyyat	-11.7553
▁nauhagar	-11.7555
▁jagaya	-11.7555
▁charch	-11.7556
▁aaza	-11.756
▁roenge	-11.756
▁sahaare	-11.756
farsa	-11.7561
▁bachat	-11.7561
▁farzana	-11.7563
▁khala	-11.7563
▁dikhlati	-11.7563
▁Tak	-11.7566
widaa	-11.757
▁arbada	-11.757
waslat	-11.7571
▁fash	-11.7571
▁sharq	-11.7573
▁peshtar	-11.7574
▁anadil	-11.7575
baalish	-11.7576
▁baid	-11.7577
▁baadiya	-11.7577
▁ghera	-11.758
▁salib	-11.758
▁piw	-11.7581
▁chaunka	-11.7582
▁maqamat	-11.7586
▁laega	-11.7587
tahammul	-11.759
azam	-11.7593
abdar	-11.7599
▁laDat	-11.7609
▁paon	-11.7609
mari	-11.7611
▁maghrib	-11.7616
▁hech	-11.7616
▁mahki	-11.762
▁gahna	-11.762
jama	-11.762
▁shaki	-11.762
▁chill	-11.7623
▁fahmid	-11.7624
▁batlao	-11.7624
▁mushab	-11.7625
zabar	-11.7627
taf	-11.7629
▁safedi	-11.763
▁kanari	-11.7637
▁badr	-11.7637
▁churaat	-11.7644
▁The	-11.7646
gulgun	-11.7649
duz	-11.765
▁Thaharna	-11.7653
▁DhunDo	-11.7653
▁aabl	-11.7653
bewafa	-11.7655
mila	-11.7658
▁Thahren	-11.7662
fasurdagi	-11.7665
bedard	-11.7667
▁sarsari	-11.7667
▁sutun	-11.767
surud	-11.7676
▁riz	-11.7677
▁sadi	-11.7681
sima	-11.7681
jag	-11.7688
▁ehram	-11.7692
indagan	-11.7694
▁pasti	-11.7695
bhaD	-11.7695
▁buT	-11.7698
▁zagh	-11.7699
parwari	-11.7701
▁lazzaten	-11.7702
▁qas	-11.7706
aaina	-11.7708
▁rulat	-11.7713
haqiq	-11.7713
ghaebana	-11.7714
▁aastana	-11.7716
▁chhua	-11.7723
rasida	-11.7728
▁sunaya	-11.7729
▁tundi	-11.7736
afsurda	-11.7747
bhut	-11.7747
▁jhagDe	-11.7748
▁rauza	-11.7752
▁ali	-11.7753
▁sarma	-11.7765
▁puchhi	-11.7765
tajdid	-11.7766
▁haris	-11.7783
▁saut	-11.7784
▁behad	-11.7787
▁qaw	-11.7804
aah	-11.7805
hain	-11.7816
▁jhilmila	-11.7818
▁yarana	-11.7818
wabastagi	-11.782
hoD	-11.7821
rabab	-11.7832
▁barun	-11.7858
▁rani	-11.7858
▁taKHti	-11.7861
bahzad	-11.7876
▁mezban	-11.7883
▁pasin	-11.7884
kani	-11.7885
▁jhal	-11.789
▁aawazen	-11.7891
hoshi	-11.7897
▁yariyan	-11.7901
▁chiDiya	-11.791
shikani	-11.791
▁qayamaten	-11.7915
pareshani	-11.7922
basera	-11.7929
▁taat	-11.7933
▁phaTi	-11.7933
▁shara	-11.794
▁rau	-11.7942
▁uThao	-11.7945
▁thuk	-11.7947
▁khaen	-11.795
▁jalal	-11.7951
▁bhaDk	-11.7957
▁sikhi	-11.7966
▁nabaat	-11.7997
▁muzma	-11.7998
▁pathra	-11.8009
▁pala	-11.801
mana	-11.8012
laq	-11.8015
▁narmi	-11.8025
ft	-11.8026
▁Dalo	-11.8029
▁jhele	-11.8049
▁sardi	-11.8051
zang	-11.8063
KHta	-11.8063
▁naseho	-11.8067
zam	-11.8076
KHatt	-11.8086
▁murd	-11.8087
asmani	-11.8088
▁purkar	-11.809
▁karbala	-11.8092
▁bikt	-11.8095
saKHti	-11.8097
▁bahta	-11.8098
baham	-11.8106
agah	-11.8108
rini	-11.8113
▁dhona	-11.8137
guzaran	-11.8146
▁bichh	-11.8146
▁jaulan	-11.8151
▁kahaniyan	-11.8152
samani	-11.8152
gohar	-11.8185
▁zin	-11.8209
guzari	-11.822
lahi	-11.8239
▁zabanen	-11.8248
▁laDk	-11.826
▁mohammad	-11.8269
▁paDhiy	-11.8276
sahrai	-11.8285
aur	-11.829
▁bajt	-11.8307
▁chuk	-11.8327
fas	-11.8333
▁or	-11.8333
▁KHasm	-11.834
▁boln	-11.8357
▁bachan	-11.8362
chini	-11.8365
▁zamzame	-11.8365
zu	-11.8372
zuh	-11.8379
▁naT	-11.841
▁ayyam	-11.8412
▁taKH	-11.8442
▁zindani	-11.8461
arabi	-11.8466
▁sarir	-11.8486
▁bila	-11.8522
siKH	-11.8532
▁bulbulo	-11.8537
▁aawaza	-11.8569
▁sanbhal	-11.8603
▁sufiyo	-11.8625
▁jul	-11.8635
hish	-11.8651
hast	-11.8691
gur	-11.8699
▁arab	-11.8728
▁ghaDiya	-11.873
iran	-11.8736
▁tufani	-11.8753
▁ugt	-11.8775
▁tasht	-11.8793
ghat	-11.8811
▁wafadar	-11.8822
faqir	-11.8822
miyan	-11.8833
▁KHara	-11.8835
wwa	-11.8853
reza	-11.8877
▁bulan	-11.8883
▁rulan	-11.8887
qud	-11.891
sipah	-11.8923
baD	-11.8925
▁kariye	-11.893
▁shahi	-11.8936
ayat	-11.8951
fiq	-11.8954
▁peshwa	-11.896
Diyan	-11.8965
▁KHuddari	-11.8967
gudazi	-11.8974
▁wohin	-11.8976
▁bechn	-11.8976
▁jaulani	-11.898
▁jhankn	-11.8983
▁bur	-11.9
▁titliy	-11.9009
▁darwaz	-11.9019
▁qarin	-11.902
tahi	-11.9022
bat	-11.9026
diq	-11.9026
ste	-11.9033
aashiq	-11.9034
wand	-11.9036
▁ism	-11.9047
▁wasi	-11.9052
rani	-11.9058
▁uTThen	-11.9071
bast	-11.9075
▁aabaadi	-11.9078
uzw	-11.9086
farsi	-11.9088
bardari	-11.9096
jamil	-11.9111
▁Dhala	-11.9147
hang	-11.9164
zaf	-11.9186
▁bhanw	-11.9204
▁wapsi	-11.922
daran	-11.9235
▁nawah	-11.9238
▁dhaDk	-11.9247
kon	-11.9256
badmast	-11.9259
▁sunat	-11.9275
▁gudgud	-11.9288
▁taz	-11.9292
bahisht	-11.9292
▁sharman	-11.9295
ruswa	-11.9303
majaz	-11.9304
shish	-11.9317
▁KHwari	-11.9324
▁nila	-11.9336
rindan	-11.9337
ashiya	-11.9338
bujh	-11.9342
▁sul	-11.9343
zid	-11.9359
▁mahka	-11.9363
maghrib	-11.9364
▁muha	-11.9365
hech	-11.9366
mauzun	-11.9366
tahayyur	-11.9366
gurez	-11.9366
▁samjhat	-11.9366
fuzul	-11.9366
millat	-11.9367
taqrib	-11.9367
mohall	-11.9367
kahkashan	-11.9367
qulqul	-11.9368
saut	-11.9368
ishwa	-11.9368
tajraba	-11.9369
shefta	-11.9369
KHulus	-11.9369
majburi	-11.9369
tilism	-11.9369
masarrat	-11.937
pindar	-11.937
madfan	-11.937
KHanqah	-11.937
gharib	-11.9371
bisr	-11.9371
zinat	-11.9371
mehnat	-11.9371
▁samo	-11.9372
bisat	-11.9372
nasheman	-11.9372
fauj	-11.9372
farogh	-11.9373
baatil	-11.9373
iltija	-11.9373
jallad	-11.9373
qasr	-11.9373
phuT	-11.9373
mohr	-11.9373
tilismat	-11.9374
ghalat	-11.9374
kaamyab	-11.9374
rifaqat	-11.9374
hujum	-11.9374
toD	-11.9375
tumhaari	-11.9375
tumhaare	-11.9375
sufi	-11.9376
kalisa	-11.9376
muntazir	-11.9376
maujud	-11.9376
uqda	-11.9377
azizan	-11.938
hasin	-11.938
kamand	-11.9382
qabr	-11.9382
maut	-11.9383
sabhi	-11.9383
peshani	-11.9384
turra	-11.9384
sailab	-11.9385
▁zimme	-11.9385
▁aja	-11.9385
barhaman	-11.9385
baatin	-11.9385
samt	-11.9385
sangin	-11.9386
shagufta	-11.9387
kasrat	-11.9387
mahram	-11.9394
piye	-11.9394
lamha	-11.9395
hamare	-11.9396
tauf	-11.9396
▁bebaki	-11.9397
nawak	-11.9398
munawwar	-11.9398
iqrar	-11.94
harf	-11.9402
sana	-11.9403
andesha	-11.941
lail	-11.9413
▁muKHta	-11.9414
▁qal	-11.9417
▁duzd	-11.9418
lahu	-11.9429
ghairat	-11.9432
mahr	-11.9435
shiyar	-11.9435
awam	-11.9436
▁uThun	-11.9437
namak	-11.9437
▁harza	-11.9438
tala	-11.9444
darban	-11.9449
tapak	-11.9452
▁khaun	-11.9457
maidan	-11.946
▁bharos	-11.9478
▁mauzu	-11.9483
▁jhap	-11.9486
▁sidha	-11.9488
▁resh	-11.9489
▁dum	-11.9492
qur	-11.9496
alluq	-11.9499
azurda	-11.9501
yub	-11.9501
ukhDe	-11.9502
▁tafrih	-11.9502
pumba	-11.9502
▁aarmida	-11.9502
▁fishaar	-11.9502
▁huwaida	-11.9502
▁muqayyad	-11.9502
▁mustaqbil	-11.9502
▁qasmen	-11.9502
▁riwaj	-11.9502
▁sujhe	-11.9502
▁tamkanat	-11.9502
▁tyauhaar	-11.9502
▁yalghaar	-11.9502
▁husain	-11.9502
▁jazira	-11.9502
▁kashkol	-11.9502
▁majmua	-11.9502
▁majzub	-11.9502
▁mamnun	-11.9502
▁meamar	-11.9502
▁pazhmurda	-11.9502
▁phurti	-11.9502
▁ratjag	-11.9502
▁udheD	-11.9502
▁ukhaD	-11.9502
▁tufail	-11.9502
▁huqq	-11.9502
▁mahbus	-11.9502
▁zubun	-11.9502
warastagi	-11.9502
▁ahmaq	-11.9502
ghusl	-11.9502
▁aula	-11.9502
▁muhayya	-11.9502
▁habs	-11.9502
▁rulwa	-11.9502
▁naqqara	-11.9502
yaqub	-11.9502
KHwast	-11.9502
▁ahkaam	-11.9502
▁husul	-11.9502
jamshed	-11.9502
▁tafsir	-11.9502
ghaltan	-11.9502
uzlat	-11.9502
▁muntashir	-11.9502
tasnim	-11.9502
▁riayat	-11.9502
▁wamiq	-11.9502
▁phaphul	-11.9502
▁Tank	-11.9502
hrist	-11.9502
▁marghub	-11.9502
▁pighl	-11.9502
▁nisf	-11.9502
▁kiwaD	-11.9502
▁lapk	-11.9502
taaruf	-11.9502
▁mandir	-11.9503
▁suraKH	-11.9503
muluk	-11.9503
▁halchal	-11.9503
▁sapne	-11.9503
▁Dere	-11.9503
▁ThanDe	-11.9503
▁burj	-11.9503
qaf	-11.9503
▁tauhin	-11.9503
▁dafatan	-11.9503
▁afrang	-11.9503
alast	-11.9503
▁sikk	-11.9503
▁pul	-11.9503
▁uqde	-11.9504
▁mardumak	-11.9504
▁gunjaish	-11.9504
▁dahal	-11.9504
▁shukriya	-11.9504
▁dubara	-11.9505
▁masail	-11.9505
urdu	-11.9506
▁ghaw	-11.9506
▁mirza	-11.9506
▁filhaal	-11.9506
▁koyal	-11.9507
▁aqlim	-11.9507
▁danw	-11.9507
▁pinD	-11.9507
▁bojhal	-11.9507
▁shabih	-11.9508
▁danist	-11.9508
▁roghan	-11.9509
faf	-11.9509
▁laqab	-11.9509
▁tazir	-11.9509
▁mubarakbaad	-11.9509
▁mughbach	-11.9509
▁tila	-11.9509
▁kaamrani	-11.951
surayya	-11.951
▁tarkib	-11.951
▁KHushamad	-11.9511
▁taqaz	-11.9512
▁daya	-11.9512
▁KHastagi	-11.9514
▁samjhaut	-11.9514
▁bayaz	-11.9514
▁siDhi	-11.9515
▁hasad	-11.9515
▁juzw	-11.9515
▁ranjida	-11.9516
▁barkat	-11.9517
▁dafa	-11.9519
▁KHayaban	-11.9519
▁iKHfa	-11.9519
▁mashriq	-11.9519
▁resham	-11.9519
▁anokh	-11.952
▁laDkhaDa	-11.952
surmagin	-11.952
▁piyare	-11.9521
▁imamat	-11.9521
▁shol	-11.9522
▁malul	-11.9523
▁bahke	-11.9523
▁pating	-11.9524
▁pakDa	-11.9524
▁guzarish	-11.9524
▁aazmaya	-11.9525
kosh	-11.9526
▁sunahr	-11.9526
▁babul	-11.9528
▁kaTor	-11.9531
▁mangwa	-11.9532
▁chaba	-11.9532
▁saadat	-11.9533
kashan	-11.9533
▁tharra	-11.9535
zebai	-11.9536
shewa	-11.9538
faryaad	-11.9538
▁fankar	-11.9538
▁qafiya	-11.9539
▁aabgin	-11.954
▁nibhan	-11.9541
▁bhawen	-11.9541
▁bhaun	-11.9541
▁mahnga	-11.9542
▁dohraat	-11.9544
▁uftada	-11.9546
nalan	-11.9547
▁saif	-11.9548
▁sharaf	-11.9548
▁aarasta	-11.9548
▁subha	-11.9549
▁darguzar	-11.9549
▁dahqan	-11.955
▁iltimas	-11.955
▁jawaz	-11.955
▁mansha	-11.9551
▁nizam	-11.9551
▁shubh	-11.9552
▁sarKHushi	-11.9554
▁angara	-11.9554
▁sataish	-11.9555
▁mahke	-11.9555
▁chaTan	-11.9556
▁kushtagan	-11.9556
billah	-11.9556
▁tiryak	-11.9556
▁kholiye	-11.9557
▁maash	-11.9558
▁bhuka	-11.956
▁sadaqat	-11.9563
▁muhi	-11.9563
▁ubharna	-11.9565
▁mahdud	-11.9566
▁tohmaten	-11.9567
▁tawana	-11.9567
▁mohren	-11.9567
taur	-11.9568
▁paDenge	-11.9571
▁Daliyan	-11.9571
▁sawalat	-11.9572
▁dikhaenge	-11.9573
▁mub	-11.9574
▁champ	-11.9574
▁uljhi	-11.9574
▁sog	-11.9574
▁muqabl	-11.9576
▁dengi	-11.9577
baadam	-11.9577
shash	-11.9578
▁parwardigar	-11.9581
▁jalaiye	-11.9581
▁zaif	-11.9581
▁fasad	-11.9584
mandi	-11.9585
agin	-11.9585
aluda	-11.9587
Than	-11.9589
▁doshiz	-11.959
▁lahren	-11.959
▁roab	-11.9592
▁hamraaz	-11.9593
▁uchhaala	-11.9594
qarariyan	-11.9595
shahanshahi	-11.9596
▁rassi	-11.9605
▁god	-11.9606
▁sachchi	-11.9606
mehrbani	-11.9609
qam	-11.961
qul	-11.9612
▁DhunDen	-11.9612
▁faulad	-11.9612
▁maktub	-11.9612
▁parwez	-11.9612
▁gireban	-11.9615
▁rifat	-11.9617
▁hads	-11.9619
▁faKH	-11.9622
▁samand	-11.9623
▁gulal	-11.9624
▁KHatib	-11.9626
▁mez	-11.9631
▁hima	-11.9635
▁tariqa	-11.9636
▁ismat	-11.964
▁khiDki	-11.9642
▁samjhaya	-11.9647
▁sohbaten	-11.9648
tija	-11.9649
hala	-11.965
▁mastiyan	-11.9651
▁chheDen	-11.9655
▁niklegi	-11.9657
▁wasil	-11.9662
▁mohra	-11.9672
▁dauDa	-11.9673
▁jhaDa	-11.9677
▁ajam	-11.9678
mahzun	-11.968
▁darweshi	-11.9684
▁aaras	-11.9687
nakaami	-11.9689
aKHt	-11.9694
▁shahpar	-11.9696
baKHshi	-11.9699
▁uThwa	-11.9704
▁amn	-11.9708
wad	-11.9708
▁rindan	-11.9713
▁laja	-11.9714
▁hushyari	-11.9719
▁gilas	-11.9723
▁aafrin	-11.9724
▁jhaDt	-11.9739
▁sabil	-11.9739
▁jau	-11.9752
nek	-11.9752
▁nakaami	-11.9754
▁barha	-11.9756
▁tiflan	-11.9756
▁dardmand	-11.9764
▁illa	-11.9769
▁thama	-11.9781
bir	-11.9782
▁lahraat	-11.9785
▁parcha	-11.9787
sharminda	-11.9792
ungi	-11.9795
▁neza	-11.9813
▁kholen	-11.9824
▁batana	-11.9826
▁bhaga	-11.9831
mushtaqi	-11.9832
gta	-11.9832
▁chizen	-11.9839
▁gunjt	-11.9852
▁tarf	-11.9891
TTi	-11.9897
▁zanaKHdan	-11.9902
▁andhe	-11.9904
gu	-11.991
▁afs	-11.9916
▁jhumke	-11.9919
lim	-11.992
kalami	-11.9921
▁nig	-11.9923
shahana	-11.9924
dildari	-11.9928
hus	-11.9928
▁jafakar	-11.9932
▁zaqan	-11.9935
▁dawam	-11.9938
tamami	-11.9939
qi	-11.9944
▁diwaren	-11.9945
▁shiar	-11.9965
▁KHashak	-11.9969
▁pankh	-11.9974
▁rasti	-11.9975
▁jhagaDt	-11.998
▁baadam	-11.9982
adalat	-11.9986
▁pall	-11.9992
digaran	-12.0003
▁ghur	-12.0004
▁maujen	-12.0007
▁mojaz	-12.0013
▁ug	-12.0014
▁maKHm	-12.0014
▁kaDw	-12.0021
ant	-12.0024
hubb	-12.0047
mez	-12.0049
gus	-12.0055
▁darbani	-12.0062
azari	-12.0066
ziya	-12.009
▁dahakt	-12.0098
▁haara	-12.0099
▁rabta	-12.0102
▁pati	-12.0103
KHirami	-12.0106
harifan	-12.0119
▁tajir	-12.0121
mandgi	-12.0129
▁rasan	-12.0131
▁kausar	-12.0136
▁haul	-12.0143
▁dikhlao	-12.0146
▁sunaen	-12.0171
KHui	-12.0198
▁karim	-12.0212
▁jhankt	-12.0217
▁sarka	-12.0223
▁guzreg	-12.0224
wir	-12.0224
▁banaen	-12.0239
sak	-12.0244
▁tughyani	-12.0248
▁pasar	-12.0268
▁bakr	-12.0282
sipas	-12.0287
▁nakaamiy	-12.0297
▁law	-12.0308
▁karke	-12.0344
▁ghis	-12.0347
▁ujla	-12.0352
fiqra	-12.0365
taqw	-12.0366
▁KHaraba	-12.0387
lil	-12.039
honk	-12.0399
▁KHasar	-12.0407
▁muskurahaT	-12.0417
rozi	-12.0429
Dak	-12.043
nash	-12.043
▁biti	-12.0447
KHizani	-12.0451
▁ghulami	-12.0456
naumidi	-12.0466
Dar	-12.0472
▁becht	-12.0474
nil	-12.0481
▁chhak	-12.0507
▁chhant	-12.0521
baKHti	-12.0541
▁putliy	-12.0543
▁jalwat	-12.0557
▁farosh	-12.0562
▁payami	-12.0572
▁tazi	-12.0579
mastur	-12.0584
▁yagan	-12.0593
phal	-12.0594
tarashi	-12.0601
▁KHudawand	-12.0604
ili	-12.0609
▁jhamakt	-12.0621
sultani	-12.0645
▁jagat	-12.0645
▁chhina	-12.0647
said	-12.0655
▁lahlaha	-12.0668
▁wahsh	-12.069
▁matn	-12.0707
pahr	-12.0739
▁barast	-12.074
▁nima	-12.0761
▁parakh	-12.0771
▁sanj	-12.0772
▁chhupt	-12.0805
hli	-12.0807
▁KHudawanda	-12.0814
▁pash	-12.0827
taus	-12.0828
▁dasta	-12.0834
▁bag	-12.0858
▁chauda	-12.0874
cham	-12.0898
▁paTakt	-12.0909
arra	-12.0935
ope	-12.0971
▁shanasa	-12.0973
hasinan	-12.0977
hawwa	-12.0982
▁pighalt	-12.1018
mad	-12.1031
▁piran	-12.1044
▁daru	-12.1066
▁KHuddar	-12.1073
qabu	-12.1125
hir	-12.1166
▁kuchal	-12.1205
jul	-12.1221
attar	-12.1234
▁sanwart	-12.1257
▁baDhan	-12.1321
uz	-12.1332
▁dikhawe	-12.1369
faroz	-12.1375
hw	-12.1389
▁Dhah	-12.1391
▁miTn	-12.1408
▁suljh	-12.1427
▁andh	-12.1472
▁qiss	-12.1482
KHusraw	-12.1489
indagi	-12.1493
▁afsan	-12.1496
nayab	-12.1501
isti	-12.1522
nawardi	-12.1522
▁tau	-12.1529
ahaT	-12.1549
▁jalw	-12.1579
irada	-12.1582
▁mayusi	-12.1592
rifat	-12.1601
▁purz	-12.1604
jazb	-12.162
▁qatr	-12.1629
▁saq	-12.1665
amin	-12.1679
zaq	-12.1698
slat	-12.1701
aghoshi	-12.1722
▁nis	-12.1734
aap	-12.1753
KHurd	-12.1781
▁pechid	-12.1783
▁khinchun	-12.1784
mahrum	-12.1798
▁sajd	-12.1802
▁haw	-12.1804
▁patti	-12.1807
▁shadabi	-12.1809
wasia	-12.1818
▁qim	-12.182
musta	-12.1827
almas	-12.1831
pilan	-12.185
guft	-12.185
dabistan	-12.1858
jumban	-12.1858
dra	-12.186
faulad	-12.1862
maktub	-12.1862
parwez	-12.1862
sahn	-12.1862
gireban	-12.1862
faragh	-12.1863
numu	-12.1865
qurb	-12.1865
kishwar	-12.1866
KHatib	-12.1867
madrasa	-12.1867
qaum	-12.1867
Khaar	-12.1867
ishtiyaq	-12.1868
afzun	-12.1868
wahdat	-12.1868
zohd	-12.1869
Dhang	-12.1869
neamat	-12.1869
gustaKH	-12.187
najat	-12.187
timsal	-12.1871
▁farzan	-12.1871
KHaliq	-12.1872
habib	-12.1872
kirdar	-12.1872
masafat	-12.1872
muztarib	-12.1872
kashmakash	-12.1873
maghrur	-12.1873
biTha	-12.1873
takrar	-12.1873
partaw	-12.1873
tahzib	-12.1873
qusur	-12.1873
pasheman	-12.1873
tasalli	-12.1874
shohrat	-12.1874
naKHl	-12.1874
mashq	-12.1874
mansur	-12.1874
koshish	-12.1874
ustad	-12.1874
ghuss	-12.1874
mohtasib	-12.1874
jumbish	-12.1874
pahchan	-12.1874
zaman	-12.1874
phaT	-12.1874
ranjish	-12.1874
chheD	-12.1875
dhi	-12.1875
khila	-12.1875
pher	-12.1875
dhup	-12.1875
darwesh	-12.1875
faraghat	-12.1876
guzre	-12.1876
qasam	-12.1877
gumbad	-12.1877
sirf	-12.1877
ehsan	-12.1877
diwangi	-12.1878
khaDa	-12.1878
jins	-12.188
itr	-12.188
qarya	-12.188
rauzan	-12.188
maktab	-12.1881
payam	-12.1881
subuk	-12.1883
shamim	-12.1884
qurban	-12.1885
baghal	-12.1888
munim	-12.1889
musht	-12.189
afsurdagi	-12.189
tabiat	-12.1895
KHushbu	-12.1898
piyala	-12.1898
▁jhumk	-12.1899
giraftari	-12.19
▁chhupaun	-12.1907
shakl	-12.1911
kulfat	-12.1915
bujha	-12.1916
gulchin	-12.1917
deri	-12.1917
▁padshah	-12.1919
▁pashiman	-12.1919
zamir	-12.192
▁laiye	-12.192
zamzama	-12.1921
▁chuTkiy	-12.1921
daim	-12.1928
dekhna	-12.1935
▁sahir	-12.1936
kibriya	-12.1938
gawara	-12.1939
kahin	-12.1941
▁dip	-12.1941
barish	-12.1945
gahen	-12.1949
qana	-12.1955
▁lawen	-12.1958
bacha	-12.1962
▁ijti	-12.1963
▁manun	-12.1966
▁ilaq	-12.1971
▁qil	-12.1972
▁boriy	-12.1973
▁nuqt	-12.1973
▁ziyaad	-12.1978
paida	-12.1979
▁tama	-12.1985
bebaki	-12.1988
▁maska	-12.1989
salam	-12.1992
giraft	-12.1999
▁nath	-12.2
▁chaaragaro	-12.2001
nujum	-12.2001
awargi	-12.2001
▁biThla	-12.2001
jhok	-12.2001
▁chhiTk	-12.2002
▁ghilaf	-12.2002
▁ikaTTh	-12.2002
▁jhuTpuT	-12.2002
▁maqtul	-12.2002
▁maslub	-12.2002
▁moatakif	-12.2002
▁mubtila	-12.2002
▁mudrik	-12.2002
▁muslim	-12.2002
▁nirKH	-12.2002
▁nuqush	-12.2002
▁radif	-12.2002
▁raghbat	-12.2002
▁rakkho	-12.2002
▁samjhi	-12.2002
▁tamsil	-12.2002
▁tasadduq	-12.2002
▁uTThun	-12.2002
▁waswas	-12.2002
▁wawaila	-12.2002
▁aTkheli	-12.2002
▁jharok	-12.2002
▁lughat	-12.2002
▁masrur	-12.2002
▁qamis	-12.2002
▁suhag	-12.2002
▁tashrif	-12.2002
▁uchhl	-12.2002
▁lakDi	-12.2002
▁shiml	-12.2002
▁ummidwariyan	-12.2002
▁baKHil	-12.2002
▁labaalab	-12.2002
▁Tahal	-12.2002
▁afyun	-12.2002
▁tuyur	-12.2002
▁zom	-12.2002
tahasha	-12.2002
▁Dagmaga	-12.2002
▁bhaunchaal	-12.2002
ammara	-12.2002
▁qudsiy	-12.2002
▁guftani	-12.2002
▁wasma	-12.2002
▁polic	-12.2002
giyah	-12.2002
▁qiran	-12.2002
ubaali	-12.2002
▁mulaem	-12.2002
▁anguTh	-12.2002
▁rezish	-12.2002
▁tikhe	-12.2002
▁ghote	-12.2002
▁post	-12.2002
▁ummat	-12.2002
▁dular	-12.2002
▁buzdil	-12.2002
▁jharn	-12.2002
▁bairag	-12.2002
▁pahni	-12.2002
▁imla	-12.2002
iqlim	-12.2002
zamistan	-12.2002
KHyal	-12.2002
▁ghonT	-12.2002
▁lahna	-12.2002
▁minqar	-12.2002
▁hashiya	-12.2002
rumuz	-12.2002
firaun	-12.2002
▁qashq	-12.2002
▁guldasta	-12.2002
▁banhen	-12.2002
▁tawangar	-12.2002
▁halawat	-12.2003
▁katre	-12.2003
▁saKHi	-12.2003
▁rustaKHez	-12.2003
▁phuwar	-12.2003
▁tulani	-12.2003
nastaran	-12.2003
▁tanqid	-12.2003
▁julus	-12.2003
▁jhamka	-12.2003
▁amrad	-12.2003
▁neshtar	-12.2003
ubash	-12.2003
shunid	-12.2004
▁chaspan	-12.2004
▁nargh	-12.2004
▁gahwara	-12.2004
▁gadra	-12.2004
▁dahka	-12.2004
▁pachhtaoge	-12.2004
▁mazlum	-12.2004
▁lifaf	-12.2005
▁zau	-12.2005
mohtat	-12.2005
behuda	-12.2005
▁sirhan	-12.2005
▁namuna	-12.2006
gazid	-12.2006
▁fatil	-12.2006
KHwesh	-12.2006
▁doshaal	-12.2006
▁zafaran	-12.2006
▁KHabt	-12.2007
▁zakat	-12.2007
▁zariya	-12.2007
▁nisti	-12.2008
▁nisab	-12.2008
abjad	-12.2008
▁zak	-12.2008
sarisht	-12.2008
▁shaistagi	-12.2008
wakil	-12.2009
▁KHwaja	-12.2009
▁anj	-12.2009
▁intiza	-12.2009
madina	-12.2009
fashan	-12.2009
▁jamghaT	-12.2009
▁shaguftagi	-12.2009
▁nasiya	-12.201
▁ghaza	-12.201
ajz	-12.201
▁masak	-12.201
▁basere	-12.2011
▁samri	-12.2011
▁shuru	-12.2011
azzul	-12.2012
▁colla	-12.2012
▁angDaiyan	-12.2013
▁saDak	-12.2013
▁tarawat	-12.2013
▁itrae	-12.2014
▁chingariyan	-12.2014
▁aasudgi	-12.2014
▁yazid	-12.2015
istiqbaal	-12.2015
nghi	-12.2015
▁bhaala	-12.2016
rd	-12.2016
▁chauki	-12.2016
▁risala	-12.2016
▁kanch	-12.2016
▁wazir	-12.2016
▁darmanda	-12.2017
▁pukariye	-12.2017
▁nazish	-12.2017
▁fatw	-12.2017
▁sogwar	-12.2018
taimur	-12.2018
tiraf	-12.2019
▁tiliyan	-12.2019
▁bulawe	-12.202
▁naql	-12.202
▁samjhenge	-12.2022
▁dafin	-12.2022
▁jhula	-12.2022
parwarda	-12.2022
▁sakiye	-12.2023
hijaz	-12.2024
▁mashshata	-12.2024
▁zalzala	-12.2024
▁mushfiq	-12.2025
▁ehtiraaz	-12.2025
▁ishtiha	-12.2025
▁maghfirat	-12.2025
▁tasalsul	-12.2025
▁taKHliq	-12.2025
▁yumn	-12.2025
ifraat	-12.2025
▁gur	-12.2025
▁barkha	-12.2026
▁shukrana	-12.2027
dawan	-12.2027
tapida	-12.2027
▁ghaaliban	-12.2028
▁malahat	-12.2029
▁sarayat	-12.2029
▁tel	-12.2029
gusaran	-12.203
▁halab	-12.203
ghzi	-12.2031
▁ifa	-12.2033
mardana	-12.2033
▁kaukab	-12.2035
▁raKHsh	-12.2035
▁reKHt	-12.2035
zib	-12.2038
tap	-12.2038
dekha	-12.2039
▁khaDak	-12.204
▁takrim	-12.204
afzai	-12.204
kashti	-12.2041
▁chauth	-12.2041
▁hilaun	-12.2042
▁Dalenge	-12.2044
▁chaud	-12.2045
▁tarsaya	-12.2045
hijabiyan	-12.2045
▁boh	-12.2047
shumal	-12.2047
tarrar	-12.2048
▁bulwa	-12.2048
▁puja	-12.2049
shoh	-12.205
▁saad	-12.205
▁bargashta	-12.2051
▁shaguftan	-12.2055
▁inT	-12.2057
▁martabe	-12.2059
▁hikayaten	-12.206
▁aabju	-12.206
▁betabiyan	-12.2062
▁paunga	-12.2062
▁dhat	-12.2063
▁machi	-12.2064
▁sidq	-12.2065
gila	-12.2065
chalo	-12.2066
▁taer	-12.2066
zul	-12.2066
▁juti	-12.2068
qafa	-12.2068
▁mewa	-12.207
▁ghamnak	-12.207
▁laiq	-12.2072
▁dikhlaya	-12.2072
▁kahwe	-12.2072
▁chunan	-12.2073
▁laeq	-12.2074
▁miTaya	-12.2075
▁rasul	-12.2076
shunu	-12.2076
▁rahraw	-12.2079
▁taid	-12.2079
▁bardasht	-12.2081
parwarish	-12.2081
faqa	-12.2082
kushtan	-12.2083
araish	-12.2084
▁sirat	-12.2087
sarkar	-12.2087
▁zahrab	-12.2087
▁chheDun	-12.2089
▁bachaun	-12.2089
▁mela	-12.2092
▁bechaini	-12.2094
▁pasina	-12.2096
▁nikalegi	-12.2097
▁sataen	-12.2098
▁bichhane	-12.2099
▁sadr	-12.2102
▁khencha	-12.2105
bahishti	-12.2106
▁sanobar	-12.2106
▁sulf	-12.2106
▁ashjar	-12.2107
▁niyam	-12.2107
▁KHurram	-12.2108
▁manwa	-12.2109
▁pahunchegi	-12.211
▁namnak	-12.2111
▁chhala	-12.2115
▁zariyan	-12.2115
KHad	-12.2115
▁itraat	-12.2116
▁tazad	-12.2117
▁haariye	-12.2118
akat	-12.2121
▁kashf	-12.2121
▁zina	-12.2124
▁rukti	-12.2124
▁saji	-12.2125
▁bujhaya	-12.2128
itna	-12.2129
▁dewta	-12.213
▁jaiyo	-12.2131
▁wam	-12.2134
jazba	-12.2136
▁shahab	-12.2137
▁moajiz	-12.2139
▁mashal	-12.214
▁hairaniyan	-12.2143
▁phansta	-12.2144
▁dikhlate	-12.2145
▁guft	-12.2145
▁sharten	-12.2145
▁jaiyega	-12.2146
▁dabistan	-12.215
▁jumban	-12.2151
▁laenge	-12.2151
mahbubi	-12.2152
▁qadir	-12.2154
▁inji	-12.2155
▁saD	-12.2155
▁manazir	-12.2157
mustaf	-12.2157
▁dilao	-12.216
▁khulegi	-12.2161
pta	-12.2163
safiran	-12.2173
▁suhani	-12.2173
▁unnab	-12.2174
hub	-12.2176
▁sangsar	-12.2179
oKHta	-12.2184
▁likhwa	-12.2184
▁aqid	-12.2187
bairun	-12.2188
▁aamal	-12.2194
narm	-12.2196
▁jalaun	-12.2197
▁tanhaiyan	-12.2199
▁ainak	-12.22
▁aahani	-12.22
▁tauf	-12.2201
▁haDDiy	-12.2209
▁chit	-12.2216
▁asas	-12.2216
▁taqdiren	-12.222
gana	-12.2221
▁rahunga	-12.2221
▁dhundl	-12.2223
kulahi	-12.2224
▁hamla	-12.2224
▁kahish	-12.2225
▁bhejta	-12.2225
▁safin	-12.2229
▁bustan	-12.2232
▁yaqut	-12.2232
▁hijrat	-12.2233
▁sahna	-12.2233
▁pukaro	-12.2233
zarfi	-12.2237
itne	-12.2241
▁nairangi	-12.2248
▁manzilat	-12.2253
▁mushta	-12.2253
▁sunenge	-12.2255
▁meh	-12.2257
▁ummiden	-12.226
▁kahega	-12.2267
ahr	-12.2267
dekhi	-12.228
▁lasha	-12.2282
▁yawa	-12.2284
maryam	-12.2285
▁talwaren	-12.2289
▁kitaben	-12.2291
▁qah	-12.2292
▁safir	-12.2294
kahi	-12.2298
bazan	-12.23
▁nemat	-12.2304
▁jaliyan	-12.2306
▁dhaDke	-12.2309
▁dikhlane	-12.2313
▁mukarn	-12.2313
▁ghula	-12.2315
▁chuma	-12.2323
▁niklin	-12.2324
▁zanjiren	-12.2329
▁bita	-12.2332
moall	-12.2332
▁madan	-12.2344
yakta	-12.2345
▁gulgun	-12.2346
▁khinchna	-12.235
▁sharara	-12.2351
▁asr	-12.2356
▁taf	-12.2359
▁daraazi	-12.2361
▁sambhaalo	-12.2362
▁ghuru	-12.2365
piyaad	-12.2367
guz	-12.2367
▁kaifi	-12.2372
▁marun	-12.2372
▁paighambar	-12.2376
qal	-12.2391
haten	-12.2393
nadir	-12.2394
Tak	-12.2408
▁bujhana	-12.2425
nish	-12.2427
▁rindana	-12.243
▁dharm	-12.2431
▁sangin	-12.2434
▁KHutan	-12.2434
urani	-12.2436
▁mangen	-12.2436
guna	-12.2446
ranai	-12.2454
abas	-12.2455
muaf	-12.2464
▁jhalakt	-12.2469
nili	-12.2472
▁suKHanwar	-12.2481
▁khulna	-12.2483
▁gadagar	-12.2492
▁tuj	-12.2503
▁chhupaen	-12.2503
▁qasida	-12.2506
▁sharmao	-12.2516
shahbaz	-12.2523
▁sagar	-12.2525
sanji	-12.253
▁Thahrun	-12.2534
▁phisalt	-12.2543
tangi	-12.2558
▁bechaar	-12.2584
▁jud	-12.2588
▁bichaar	-12.2599
▁fir	-12.26
ruf	-12.2616
thak	-12.2623
uda	-12.2625
ajam	-12.2629
salim	-12.2655
▁kaTen	-12.2656
azad	-12.2666
▁gad	-12.2675
barik	-12.2686
ghazi	-12.2693
puKHtagi	-12.2698
bargi	-12.2719
yya	-12.2732
▁racha	-12.2747
uTh	-12.2756
▁khoT	-12.2759
▁pahunchen	-12.2778
▁paDin	-12.278
saran	-12.2802
huwan	-12.2805
▁Dak	-12.281
fit	-12.2874
▁tuf	-12.2874
piyal	-12.2888
sif	-12.2891
pu	-12.2912
▁haj	-12.2928
▁chahak	-12.2948
▁siyahkar	-12.3007
miyat	-12.3033
chara	-12.3045
bardar	-12.3051
ahna	-12.308
▁patl	-12.3102
▁ugal	-12.3107
KHanaman	-12.3173
ubur	-12.3192
▁guzran	-12.3193
mazahi	-12.3198
riyan	-12.3222
▁paedar	-12.3259
▁Dab	-12.3262
▁barchhiy	-12.3292
tidal	-12.3296
uns	-12.3311
was	-12.3319
▁Thaharti	-12.3321
▁muaml	-12.3385
zub	-12.3388
▁manaun	-12.3395
▁tarsan	-12.3429
ghaali	-12.3465
aise	-12.3469
halki	-12.3485
sazgar	-12.3506
manda	-12.3551
gaDh	-12.3592
▁lahlahat	-12.3608
uff	-12.3631
▁shahzadi	-12.3632
sarfa	-12.3635
chak	-12.3639
▁dha	-12.3675
shairana	-12.3696
hafta	-12.3709
bahar	-12.3717
zah	-12.3731
mazamin	-12.3752
sau	-12.3787
▁paTakn	-12.3807
▁kuDha	-12.3812
▁howeng	-12.3812
azaran	-12.3845
▁qariy	-12.3917
myai	-12.394
▁suq	-12.3958
▁zebai	-12.3963
asi	-12.4051
▁ubharn	-12.4064
qara	-12.4065
payan	-12.4076
▁KHira	-12.4077
▁khanakt	-12.4087
aib	-12.4089
akte	-12.412
▁ghura	-12.4159
▁muzi	-12.4164
aisa	-12.4168
sayyar	-12.4175
hamd	-12.4197
▁Thahr	-12.4232
kinar	-12.4245
▁ruTht	-12.4246
▁bilakt	-12.4277
ast	-12.4319
▁tapt	-12.438
▁mau	-12.4381
▁rakkheg	-12.4395
dawi	-12.4411
▁muwa	-12.4428
▁miTat	-12.4441
▁irad	-12.4481
khun	-12.4486
mohta	-12.4526
badr	-12.4553
bang	-12.4587
akna	-12.459
▁kashid	-12.4603
▁pardes	-12.4627
buri	-12.4637
qir	-12.4648
▁gudgudat	-12.4659
▁jhilmilat	-12.468
Dha	-12.4708
mag	-12.4717
tut	-12.4776
▁kashtiy	-12.4779
▁jhagD	-12.479
▁if	-12.4821
▁garaj	-12.4825
▁qafil	-12.4826
▁akel	-12.483
ruhani	-12.4842
▁bhabh	-12.4854
▁TeDh	-12.4855
▁nauka	-12.489
heli	-12.4912
▁saiqa	-12.492
aiman	-12.4948
▁wafadari	-12.4978
▁paDhun	-12.4991
▁barsen	-12.4997
▁uj	-12.5006
azizo	-12.5032
aKHtar	-12.5042
achchha	-12.5048
▁tharthar	-12.5052
▁sasti	-12.5068
yahan	-12.5076
Tik	-12.5084
▁toDun	-12.51
rind	-12.5104
wala	-12.5124
maKHm	-12.5124
illa	-12.5132
tifl	-12.5149
farz	-12.5175
▁pun	-12.5185
mugh	-12.5189
saffa	-12.5189
juda	-12.5192
sanobar	-12.5192
▁mach	-12.5193
ashjar	-12.5193
kush	-12.5193
zaif	-12.5196
KHurram	-12.5197
arbada	-12.5199
parwardigar	-12.5199
tasKHir	-12.52
infial	-12.52
jibril	-12.52
jawahar	-12.52
latif	-12.52
auj	-12.52
ghaib	-12.5201
baadiya	-12.5201
imtiyaz	-12.5201
siyasat	-12.5201
maula	-12.5201
sharq	-12.5202
uftad	-12.5202
KHajlat	-12.5202
muhit	-12.5202
talafi	-12.5203
sabil	-12.5203
KHanuman	-12.5203
zof	-12.5204
hurmat	-12.5204
kudurat	-12.5204
qufl	-12.5204
tasbih	-12.5204
nuqta	-12.5205
durust	-12.5205
KHema	-12.5205
ustuKHwan	-12.5205
mutrib	-12.5205
shaghl	-12.5206
kisht	-12.5206
mutlaq	-12.5206
suluk	-12.5206
sharbat	-12.5206
karishma	-12.5206
pusht	-12.5206
inqalab	-12.5206
dushnam	-12.5207
KHilaf	-12.5207
tawajjoh	-12.5207
chitwan	-12.5207
lashkar	-12.5207
KHamushi	-12.5207
girdab	-12.5207
ufuq	-12.5207
zehn	-12.5208
fasil	-12.5208
andalib	-12.5208
qimat	-12.5208
mubarak	-12.5208
intiha	-12.5208
lafz	-12.5208
khel	-12.5209
uzr	-12.5209
raushni	-12.5209
afsana	-12.5209
faeda	-12.5209
misl	-12.5209
hamesha	-12.5209
KHarch	-12.5209
▁andha	-12.521
qabil	-12.521
qarib	-12.521
baKHshish	-12.5211
nok	-12.5211
kohkan	-12.5211
qurbat	-12.5211
ghash	-12.5212
numud	-12.5212
nazakat	-12.5214
hakim	-12.5214
nashtar	-12.5215
kaise	-12.5216
farq	-12.5216
makr	-12.5217
shamshad	-12.5219
ilaj	-12.5219
kyunkar	-12.5219
ghanim	-12.5219
wabasta	-12.522
gumrah	-12.522
humse	-12.522
fasan	-12.522
shart	-12.5221
sath	-12.5221
quran	-12.5222
ghammaz	-12.5223
dastur	-12.5224
nawazish	-12.5224
pyala	-12.5224
KHalish	-12.5224
kashf	-12.5224
niyam	-12.5225
musa	-12.5225
laghar	-12.5225
▁mudda	-12.5229
▁nasr	-12.523
chaal	-12.5231
nabz	-12.5232
janab	-12.5232
mardan	-12.5233
fida	-12.5234
diya	-12.5234
tarik	-12.5235
▁paDun	-12.5236
fath	-12.5241
rihai	-12.5241
bim	-12.5242
parde	-12.5242
fasad	-12.5243
sairab	-12.5245
khaDe	-12.5245
aankhen	-12.5248
bait	-12.5249
hadis	-12.5249
kahun	-12.5249
▁daf	-12.5249
afr	-12.525
past	-12.5254
dars	-12.5256
bil	-12.5258
shadab	-12.5259
sarapa	-12.5265
tesha	-12.5267
bahs	-12.5269
nemat	-12.5271
jalat	-12.5271
ism	-12.5276
ahzan	-12.5277
waqi	-12.5277
gird	-12.5278
pand	-12.5282
maKHmal	-12.5286
hote	-12.5287
mudam	-12.5287
malum	-12.5288
nabaat	-12.5296
jagah	-12.5299
▁jhul	-12.5301
▁tamanch	-12.5303
▁hujr	-12.5305
▁niwal	-12.5305
▁baKHiy	-12.5307
▁nukt	-12.5307
adim	-12.5307
▁qibl	-12.5307
▁alaw	-12.531
imaT	-12.531
aao	-12.531
farman	-12.5315
KHab	-12.5315
▁ohd	-12.5317
▁mauq	-12.5318
▁dohr	-12.532
afsha	-12.5323
ilaha	-12.5323
▁khawe	-12.5326
mastan	-12.533
▁ThaT	-12.5332
▁TaT	-12.5334
yula	-12.5335
▁rehn	-12.5335
awez	-12.5335
RekhtaM	-12.5335
burhani	-12.5335
firangiyan	-12.5335
maulud	-12.5335
miskin	-12.5335
shuhud	-12.5335
talawwu	-12.5335
▁achhut	-12.5335
▁bewaquf	-12.5335
▁bilqis	-12.5335
▁chaukDi	-12.5335
▁dhukdhuk	-12.5335
▁faghfur	-12.5335
▁hashmat	-12.5335
▁iztirar	-12.5335
▁jhanDa	-12.5335
▁jhonpaD	-12.5335
▁jibrail	-12.5335
▁mahaaraj	-12.5335
▁muKHil	-12.5335
▁mufsid	-12.5335
▁nuqra	-12.5335
▁pochhiye	-12.5335
▁qaqum	-12.5335
▁sarguzisht	-12.5335
▁tafawut	-12.5335
▁taghayyur	-12.5335
▁tajassus	-12.5335
bilorin	-12.5335
iKHtira	-12.5335
▁chimT	-12.5335
▁gutthi	-12.5335
▁kuhistan	-12.5335
▁targhib	-12.5335
▁farbahi	-12.5335
▁ghalghal	-12.5335
▁ghazlen	-12.5335
▁umaD	-12.5335
miqdar	-12.5335
▁bhench	-12.5335
qudarat	-12.5335
▁bhola	-12.5335
▁farefta	-12.5335
▁KHursand	-12.5335
niyastan	-12.5335
KHurshed	-12.5335
shaukat	-12.5335
▁chiDh	-12.5335
▁kifayat	-12.5335
hindustan	-12.5335
najaf	-12.5335
▁chhed	-12.5335
▁aawargan	-12.5335
KHisal	-12.5335
mustaghni	-12.5335
rusum	-12.5335
▁andhiyar	-12.5335
▁madhosh	-12.5335
tayyun	-12.5335
▁kursi	-12.5335
KHitta	-12.5335
▁ankhiyan	-12.5335
▁Tahni	-12.5335
▁changul	-12.5335
▁aKHgar	-12.5335
▁tahsil	-12.5335
▁jahim	-12.5335
▁taghir	-12.5335
shuaa	-12.5335
▁qindil	-12.5335
▁rubahi	-12.5335
▁asnam	-12.5335
▁aaqil	-12.5335
▁parchhaiy	-12.5335
kunisht	-12.5335
▁fahish	-12.5335
▁jild	-12.5336
▁munDer	-12.5336
▁ganjina	-12.5336
tahrik	-12.5336
▁qassab	-12.5336
▁sapno	-12.5336
behad	-12.5336
▁adl	-12.5336
▁TaTTi	-12.5336
▁faut	-12.5336
saped	-12.5336
▁chakha	-12.5336
▁jubba	-12.5336
labbaik	-12.5336
▁jauban	-12.5336
▁bheD	-12.5336
chalaw	-12.5336
▁angrez	-12.5336
▁nujumi	-12.5336
▁machle	-12.5337
▁hajjam	-12.5337
▁rekha	-12.5337
▁mughanni	-12.5337
▁jaanashin	-12.5337
▁zalzal	-12.5337
▁mahkame	-12.5338
hiddat	-12.5338
▁ThiTh	-12.5338
luhan	-12.5339
▁mustajab	-12.5339
▁shoara	-12.5339
▁sanbhaal	-12.5339
▁jhaTke	-12.5339
▁qaus	-12.5339
▁zail	-12.5339
▁bechaargi	-12.534
▁ThaTh	-12.534
tartib	-12.5341
guzin	-12.5341
▁KHunaba	-12.5341
▁salaKH	-12.5341
▁nanw	-12.5341
▁rulaegi	-12.5341
▁hasid	-12.5341
jawidani	-12.5342
▁maqbar	-12.5342
▁phiki	-12.5342
▁sakhi	-12.5342
▁katib	-12.5342
uddin	-12.5342
andeshgi	-12.5342
▁wafur	-12.5343
imsal	-12.5343
sawad	-12.5343
▁pho	-12.5343
▁reaya	-12.5343
▁waraftagi	-12.5344
fateh	-12.5344
▁raT	-12.5344
▁mamul	-12.5344
▁KHafi	-12.5344
▁farhat	-12.5345
▁mawara	-12.5345
▁kirn	-12.5345
▁phaTak	-12.5345
sipand	-12.5346
▁safahan	-12.5346
▁washud	-12.5347
qqat	-12.5348
▁kirnen	-12.5348
afraaz	-12.5348
hunD	-12.5348
▁likkhun	-12.5349
twal	-12.5349
▁jura	-12.535
▁ilti	-12.535
▁bichchh	-12.535
▁lalcha	-12.535
▁sifl	-12.535
▁dopahr	-12.5351
alaih	-12.5351
▁piyara	-12.5351
gharzi	-12.5351
▁laDkiyan	-12.5352
▁bhaDkaya	-12.5353
binish	-12.5353
▁Dhank	-12.5354
▁kuza	-12.5354
dukka	-12.5355
▁mushahida	-12.5355
▁chash	-12.5355
▁matwal	-12.5356
▁chhatri	-12.5357
giraftagi	-12.5357
▁guth	-12.5357
shang	-12.5357
saffak	-12.5358
▁munin	-12.5359
▁chhaw	-12.5359
▁chakra	-12.5359
shafqat	-12.5359
▁dikhlaoge	-12.5361
▁mahramana	-12.5362
▁aasif	-12.5362
▁nakara	-12.5363
▁meyar	-12.5363
▁pag	-12.5364
▁tafta	-12.5365
▁nibahen	-12.5365
pid	-12.5366
qaw	-12.5367
▁bhaale	-12.5367
▁masla	-12.5368
uKH	-12.5368
▁tamancha	-12.5368
▁niwala	-12.5369
▁ohda	-12.5369
▁tashwish	-12.5369
▁ghilman	-12.5369
▁ghabghab	-12.5369
▁shatranj	-12.5369
▁sulga	-12.5369
anfas	-12.537
▁rukhi	-12.537
wesh	-12.537
▁kuT	-12.537
▁banjar	-12.5371
▁mearaj	-12.5371
dumbaala	-12.5372
▁bahlaya	-12.5372
▁kiyariyan	-12.5372
▁tabish	-12.5374
▁sahifa	-12.5375
kufa	-12.5375
niyazana	-12.5376
▁tazin	-12.5376
hansai	-12.5377
▁samaj	-12.5377
▁Takraat	-12.5377
▁zal	-12.5377
▁dikhaunga	-12.5378
magh	-12.5378
▁ganD	-12.5381
▁jasus	-12.5381
fil	-12.5382
▁salik	-12.5384
fada	-12.5384
▁ilaqa	-12.5386
afroz	-12.5386
raunaqi	-12.5386
▁qum	-12.5387
salib	-12.5387
udhar	-12.5388
▁ganwaya	-12.5389
▁sansana	-12.5391
siphar	-12.5393
▁thaale	-12.5393
figaran	-12.5393
▁kuduraten	-12.5394
▁imaraten	-12.5394
▁raft	-12.5395
▁Tis	-12.5395
▁baryab	-12.5396
▁Dalegi	-12.5396
paid	-12.5396
▁phuTt	-12.5397
karb	-12.5397
▁suniyega	-12.5398
began	-12.54
▁pach	-12.54
▁doge	-12.5401
▁salma	-12.5401
adna	-12.5402
▁dhobi	-12.5402
▁mumta	-12.5403
assir	-12.5403
zahr	-12.5404
▁gosht	-12.5405
▁gharqab	-12.5405
▁alamat	-12.5405
▁kurta	-12.5407
warid	-12.5409
▁KHiza	-12.5409
▁kulahen	-12.5409
▁panjab	-12.541
guzashta	-12.5411
▁qane	-12.5413
nazhad	-12.5416
▁lalkar	-12.542
▁latifa	-12.5422
nahaq	-12.5422
▁daen	-12.5423
▁KHunKHar	-12.5427
▁taib	-12.5427
▁raqabat	-12.5427
▁tamiz	-12.5427
▁huzn	-12.5428
▁altaf	-12.5428
K	-13.021
Q	-14.7441
J	-14.7442
F	-14.7443
R	-14.7444
I	-14.7445
N	-14.7446
G	-14.7447
S	-14.7448
A	-14.7449
M	-14.745
H	-14.7451
